<unk>	0
<s>	0
</s>	0
<pad>	0
.	-3.18349
,	-3.43064
▁ve	-4.13769
'	-4.29016
▁bir	-4.48182
▁	-4.7447
▁için	-5.29887
n	-5.36397
▁bu	-5.39957
▁ile	-5.51226
a	-5.53879
▁de	-5.58696
▁da	-5.60468
lar	-5.60497
da	-5.63269
i	-5.65243
ler	-5.663
e	-5.68233
de	-5.71659
nin	-5.76983
:	-5.78172
▁"	-5.78391
▁olarak	-5.83596
in	-5.8579
-	-5.89956
▁Bu	-5.93448
"	-5.95087
)	-5.97284
▁çok	-6.0332
nın	-6.03682
▁(	-6.0517
m	-6.06422
ın	-6.08377
ları	-6.10037
leri	-6.10614
k	-6.11039
▁olan	-6.12559
▁en	-6.16276
▁daha	-6.17109
▁-	-6.26219
li	-6.30179
ya	-6.30871
?	-6.31033
ı	-6.32899
na	-6.34511
▁gibi	-6.35199
ne	-6.36704
’	-6.39522
...	-6.40692
dan	-6.4099
den	-6.45688
ye	-6.51
la	-6.53896
le	-6.55448
s	-6.55703
▁her	-6.56804
▁kadar	-6.56894
;	-6.58802
si	-6.59642
lı	-6.60906
ni	-6.68434
▁ise	-6.73541
▁sonra	-6.74789
▁Türkiye	-6.76122
z	-6.77305
te	-6.78223
lerin	-6.79194
dir	-6.81435
ta	-6.81857
ların	-6.82566
▁var	-6.84653
▁veya	-6.84804
▁ne	-6.84945
t	-6.88695
▁yeni	-6.88958
!	-6.89149
nda	-6.89495
nde	-6.89542
u	-6.90818
/	-6.94524
▁büyük	-6.95499
▁tarafından	-6.95813
▁yer	-6.96954
▁1	-6.96982
▁göre	-6.97532
▁iyi	-6.97644
nı	-7.00152
▁zaman	-7.01018
un	-7.0184
▁o	-7.02596
▁şekilde	-7.02829
▁olduğu	-7.04267
dır	-7.04704
▁ki	-7.07324
▁2	-7.08197
yi	-7.08667
▁ya	-7.09873
▁ilk	-7.10175
▁3	-7.10711
sı	-7.12579
larını	-7.12742
▁tüm	-7.14943
lik	-7.16997
lere	-7.17217
▁'	-7.18016
▁Bir	-7.19601
▁ilgili	-7.20553
ki	-7.20572
lerini	-7.20666
▁son	-7.21508
an	-7.22492
▁olduğunu	-7.22922
l	-7.23015
r	-7.23138
▁önce	-7.24232
▁A	-7.25123
lara	-7.25539
ma	-7.26392
▁devam	-7.26599
yı	-7.27517
▁önemli	-7.31847
▁ama	-7.32294
di	-7.32853
▁değil	-7.3326
▁10	-7.33539
yla	-7.33622
▁fazla	-7.33738
▁iş	-7.36151
sa	-7.36157
▁5	-7.36508
▁arasında	-7.36865
yle	-7.3738
▁gün	-7.37533
y	-7.37801
▁hem	-7.38479
▁iki	-7.39135
▁4	-7.39557
▁para	-7.42578
▁yıl	-7.43371
▁sahip	-7.43466
▁–	-7.43895
▁birlikte	-7.44354
tan	-7.44953
▁içinde	-7.45098
en	-7.45675
▁karşı	-7.46336
▁diğer	-7.47739
ndan	-7.48367
▁nasıl	-7.48751
nun	-7.48904
d	-7.49184
▁aynı	-7.49238
er	-7.49756
ten	-7.49857
▁Başkanı	-7.50585
▁Türk	-7.51573
▁|	-7.51603
▁O	-7.51873
▁farklı	-7.52332
lık	-7.54701
p	-7.55198
lu	-7.55286
nden	-7.55627
▁S	-7.56573
▁diye	-7.56675
▁İstanbul	-7.56764
▁oldu	-7.57119
▁alan	-7.57352
me	-7.57808
▁eden	-7.58847
▁yapılan	-7.58879
▁bin	-7.60651
▁kendi	-7.60879
larının	-7.61396
▁gelen	-7.61472
larda	-7.62119
K	-7.62698
se	-7.62977
ca	-7.63131
daki	-7.63556
▁dedi	-7.64937
▁sadece	-7.65147
▁yok	-7.65717
▁güzel	-7.66812
▁olmak	-7.66911
lerde	-7.67547
o	-7.67581
▁tek	-7.68035
com	-7.6908
▁özel	-7.69296
▁yüksek	-7.69683
▁doğru	-7.70476
▁bulunan	-7.70631
▁#	-7.71801
larına	-7.71991
▁6	-7.72614
▁E	-7.72791
▁şey	-7.75009
▁olması	-7.75241
lerine	-7.75368
▁hakkında	-7.76174
▁15	-7.76198
lerinin	-7.76257
tir	-7.77077
▁üzere	-7.771
▁mi	-7.77358
▁bile	-7.77826
▁:	-7.78729
▁uygun	-7.78751
ini	-7.80139
deki	-7.80174
ü	-7.80798
ce	-7.81441
S	-7.81606
▁etti	-7.81665
▁“	-7.8181
▁bilgi	-7.82408
▁7	-7.82548
niz	-7.82745
A	-7.83796
▁su	-7.84325
▁/	-7.85053
."	-7.85156
▁üzerinde	-7.85299
lerden	-7.86529
▁hizmet	-7.86741
miz	-7.87496
▁12	-7.88182
▁20	-7.88322
▁az	-7.88913
lardan	-7.89257
▁Genel	-7.89348
▁ortaya	-7.89669
▁başka	-7.89715
▁üzerine	-7.89988
ti	-7.90295
C	-7.90418
▁8	-7.91996
D	-7.92769
▁B	-7.93465
B	-7.93805
▁kişi	-7.93806
▁bahis	-7.94041
▁olacak	-7.94075
al	-7.94714
dı	-7.94909
b	-7.95035
▁e	-7.95089
▁Her	-7.95704
▁yüzde	-7.95789
im	-7.96001
▁En	-7.9613
▁bazı	-7.96205
▁Ancak	-7.96374
▁ancak	-7.9641
▁Son	-7.96467
”	-7.96595
▁TL	-7.9662
G	-7.96858
tır	-7.97227
▁olur	-7.9726
▁uzun	-7.97655
▁biri	-7.97666
▁yılında	-7.98013
▁ben	-7.98101
▁19	-7.98139
▁Yeni	-7.98477
▁C	-7.98491
ine	-7.98538
2	-7.98666
▁birçok	-7.98921
▁neden	-7.98969
h	-7.99648
▁K	-7.99751
▁içerisinde	-7.99831
▁destek	-8.00179
ken	-8.00572
mi	-8.00576
▁saat	-8.00813
T	-8.0104
▁ardından	-8.01126
▁açık	-8.01595
larla	-8.02012
nız	-8.02156
▁eğitim	-8.02683
▁edilen	-8.02736
ün	-8.02915
▁ifade	-8.03095
lerle	-8.03569
▁konusunda	-8.03669
larında	-8.03798
▁kabul	-8.03801
▁şu	-8.0409
f	-8.05631
mız	-8.05647
g	-8.05837
▁11	-8.05973
▁ediyor	-8.06723
▁an	-8.06788
c	-8.07395
du	-8.07402
▁hiç	-8.07695
▁18	-8.07779
▁etmek	-8.0801
▁14	-8.08274
▁ABD	-8.0828
1	-8.08961
ci	-8.09037
▁yerine	-8.09096
▁üzerinden	-8.09384
▁yaptığı	-8.09787
▁süre	-8.0984
▁D	-8.10157
▁insan	-8.1034
▁ay	-8.10395
▁tam	-8.10912
▁olabilir	-8.10979
um	-8.11107
▁tercih	-8.11323
sini	-8.11383
M	-8.11465
ş	-8.11583
▁bütün	-8.11648
E	-8.11972
▁13	-8.12432
▁geri	-8.12587
ir	-8.1286
▁vardır	-8.1315
▁M	-8.13164
▁yapan	-8.13801
▁dikkat	-8.13858
mış	-8.13879
▁16	-8.14302
▁kez	-8.1432
lerinde	-8.14494
lerinden	-8.1475
ını	-8.14784
▁kısa	-8.14965
▁zamanda	-8.15694
▁T	-8.15718
▁Avrupa	-8.15839
mak	-8.16139
▁9	-8.16385
▁sosyal	-8.17124
▁yol	-8.17352
▁mı	-8.17698
▁karar	-8.17869
3	-8.1872
▁yatırım	-8.18841
▁milyon	-8.18903
▁oldukça	-8.18993
▁elde	-8.19131
▁Ne	-8.19329
P	-8.19454
siz	-8.19743
İ	-8.1997
▁yakın	-8.20291
▁Ve	-8.20403
▁geldi	-8.20578
▁Belediye	-8.20746
▁sıra	-8.20895
at	-8.21467
▁Ayrıca	-8.21534
▁söz	-8.22113
▁Dr	-8.22186
▁günü	-8.22293
▁nedeniyle	-8.22376
▁17	-8.22952
▁size	-8.23112
larından	-8.23459
oğlu	-8.24093
miş	-8.24186
▁gereken	-8.24341
▁söyledi	-8.24495
▁30	-8.24571
▁bağlı	-8.24723
▁artık	-8.24728
▁böyle	-8.24792
▁veren	-8.25387
▁yapmak	-8.25984
▁G	-8.25991
▁geçen	-8.26316
▁olsun	-8.26451
▁F	-8.26546
▁işlem	-8.26551
sını	-8.26861
sin	-8.27368
▁çalışma	-8.27649
▁herhangi	-8.27752
▁I	-8.27951
▁yine	-8.27984
▁altında	-8.28072
▁Allah	-8.28343
▁göz	-8.28756
sine	-8.28767
su	-8.2968
ar	-8.30069
▁2020	-8.30413
tı	-8.30437
ır	-8.30459
man	-8.30577
▁bunu	-8.3096
▁hiçbir	-8.3129
▁hemen	-8.3152
▁canlı	-8.31623
▁Ankara	-8.31663
▁Ama	-8.3193
▁küçük	-8.32989
▁2021	-8.33151
▁hafta	-8.33206
▁Daha	-8.33491
▁ev	-8.33665
▁gelir	-8.33749
4	-8.34118
el	-8.34283
▁a	-8.34633
▁Eğitim	-8.35279
lü	-8.3546
F	-8.35836
▁yönelik	-8.35934
▁eski	-8.36241
▁P	-8.36275
iz	-8.36816
▁Ben	-8.36917
cı	-8.37203
▁hızlı	-8.37346
▁kolay	-8.37391
▁Erdoğan	-8.37493
▁olup	-8.37704
▁takip	-8.3782
il	-8.37905
▁sağlık	-8.3792
▁zor	-8.38195
O	-8.38623
▁Haber	-8.39016
siniz	-8.39723
▁giriş	-8.39774
lama	-8.3987
▁el	-8.39992
▁Üniversitesi	-8.40038
ç	-8.40229
▁pek	-8.40444
liği	-8.40667
▁yardımcı	-8.40673
▁İl	-8.40808
H	-8.40973
▁Başkan	-8.41333
ra	-8.41423
arak	-8.41672
Y	-8.41766
▁genel	-8.41795
nizi	-8.41813
▁almak	-8.41912
▁gerçek	-8.41976
▁kontrol	-8.42151
dur	-8.42189
▁konusu	-8.42231
▁ek	-8.42341
▁özellikle	-8.42472
▁başladı	-8.42508
▁2018	-8.42689
▁oyun	-8.42733
▁değildir	-8.42748
▁Forex	-8.42758
N	-8.43542
v	-8.43606
▁üst	-8.43692
▁24	-8.43851
▁in	-8.44063
▁Belediyesi	-8.44346
uz	-8.44356
ım	-8.4441
▁yeniden	-8.44567
▁s	-8.448
▁haber	-8.44971
x	-8.44981
▁biz	-8.45052
▁tekrar	-8.4511
(	-8.45162
▁Bunun	-8.45599
▁21	-8.45767
▁Dünya	-8.45952
▁yorum	-8.4615
▁mümkün	-8.46169
▁çıkan	-8.46186
▁olmayan	-8.46388
▁biraz	-8.46484
sız	-8.4656
▁ürün	-8.46566
▁çeşitli	-8.46753
sel	-8.46909
▁ana	-8.47007
▁satın	-8.47271
▁sayesinde	-8.47467
▁dolayı	-8.47527
▁kadın	-8.4764
▁rağmen	-8.47643
I	-8.47653
▁temel	-8.47718
▁yanı	-8.47725
acak	-8.48028
▁Mart	-8.48114
▁bugün	-8.48282
▁benim	-8.48291
▁ilişkin	-8.48468
▁2017	-8.48607
▁2019	-8.487
U	-8.48924
▁durum	-8.48956
▁dakika	-8.4896
luk	-8.49262
▁üç	-8.49484
▁dünya	-8.49491
▁H	-8.4954
▁gerekir	-8.49599
▁iç	-8.49958
ması	-8.49996
▁Mayıs	-8.50172
▁23	-8.50218
▁25	-8.50263
▁22	-8.5089
Bu	-8.51086
re	-8.51108
▁ait	-8.51196
▁olsa	-8.51208
▁ön	-8.51579
lığı	-8.5167
▁sahibi	-8.51773
▁Çünkü	-8.51843
▁eder	-8.52103
▁Ali	-8.5219
▁Parti	-8.52192
▁kapsamında	-8.52441
▁hangi	-8.52487
ik	-8.52581
▁mu	-8.52818
bet	-8.54156
▁gerek	-8.54225
▁internet	-8.54239
L	-8.54249
▁ziyaret	-8.54329
▁Ocak	-8.54636
▁bunun	-8.54653
▁Tüm	-8.54674
▁al	-8.54721
nu	-8.55157
▁ödeme	-8.55171
▁...	-8.55193
▁Temmuz	-8.55322
▁ettiği	-8.55483
▁hareket	-8.5568
nızı	-8.55818
▁web	-8.56029
▁bizim	-8.56035
▁hava	-8.56043
▁nedenle	-8.56152
▁hale	-8.56218
▁yani	-8.56227
▁verdi	-8.56335
▁gerekli	-8.5638
ge	-8.57029
▁ikinci	-8.57048
▁oluyor	-8.57095
V	-8.57289
▁Kasım	-8.57305
▁Eylül	-8.57674
ına	-8.57689
ecek	-8.57807
▁olacaktır	-8.5816
▁Nisan	-8.58323
ip	-8.58503
▁Kurulu	-8.58595
inin	-8.58611
▁İlk	-8.58755
▁boyunca	-8.58854
▁tarihi	-8.5912
▁dışında	-8.5919
),	-8.5927
▁»	-8.593
▁Eğer	-8.59381
▁Çok	-8.59423
ri	-8.59667
▁İş	-8.5967
▁burada	-8.59816
▁anda	-8.59917
▁yaklaşık	-8.60382
▁Haziran	-8.60509
▁Ekim	-8.60672
▁adet	-8.6113
▁fiyat	-8.61293
▁0	-8.61415
mek	-8.61454
R	-8.61458
ıp	-8.61561
▁çıktı	-8.61719
▁sık	-8.61938
▁2016	-8.62045
▁konu	-8.62069
▁ara	-8.62131
▁aldı	-8.62141
5	-8.62186
▁derece	-8.62367
▁konuştu	-8.62459
▁ederek	-8.62887
▁durumda	-8.62906
ka	-8.63177
▁Aralık	-8.63331
lan	-8.63405
inde	-8.6343
▁yardım	-8.63709
▁teknik	-8.63747
▁yaptı	-8.64222
▁çocuk	-8.6428
7	-8.64282
▁Bakanlığı	-8.6469
ter	-8.64839
▁sitesi	-8.64974
▁at	-8.65
▁sistemi	-8.65146
Ş	-8.6522
ve	-8.65284
erek	-8.65565
▁Mehmet	-8.65685
▁İzmir	-8.65897
it	-8.66302
tr	-8.66675
▁Su	-8.66741
▁tür	-8.6678
▁bana	-8.67271
▁kötü	-8.67306
tik	-8.67326
▁görev	-8.67406
▁İ	-8.67482
▁onu	-8.6756
▁sürekli	-8.67707
▁Biz	-8.68027
▁sohbet	-8.68282
▁bize	-8.68422
▁çalışan	-8.68467
sına	-8.68488
▁kat	-8.68491
ıyor	-8.68705
ur	-8.68822
▁100	-8.68931
ed	-8.69045
▁Spor	-8.69124
yan	-8.69378
▁bulundu	-8.69611
▁Merkezi	-8.69776
mı	-8.70016
▁fark	-8.70114
sinde	-8.70146
▁Haberleri	-8.70174
▁halinde	-8.7018
han	-8.70613
]	-8.70741
▁spor	-8.70936
▁sizin	-8.70973
▁kredi	-8.71059
▁verilen	-8.71385
▁türlü	-8.71618
▁başarılı	-8.71655
▁adına	-8.71701
▁geniş	-8.72111
▁çıkar	-8.72119
▁CHP	-8.72164
▁dahil	-8.72194
▁geliyor	-8.72354
▁açısından	-8.72388
▁şöyle	-8.72416
sın	-8.72457
▁talep	-8.72466
▁hazır	-8.72513
▁değer	-8.72536
▁ülke	-8.72882
▁kar	-8.72903
▁konuda	-8.73066
▁kişinin	-8.73072
▁belli	-8.73105
▁devlet	-8.73273
bi	-8.73402
▁gece	-8.73546
▁edildi	-8.73775
▁birkaç	-8.74102
▁adı	-8.74378
▁ayrı	-8.74382
▁Şubat	-8.74593
▁yanında	-8.74642
▁onun	-8.74748
▁tarihinde	-8.74769
▁teşekkür	-8.74811
ol	-8.74874
is	-8.74927
▁izin	-8.74957
▁Sağlık	-8.7513
ul	-8.75287
▁AK	-8.75301
▁mücadele	-8.7572
▁kullanılan	-8.75808
larıyla	-8.75976
8	-8.76091
ak	-8.76145
▁uygulama	-8.76325
▁kalan	-8.76345
▁ele	-8.76384
▁sırasında	-8.7639
leriyle	-8.7647
▁Ak	-8.76543
et	-8.76628
▁2015	-8.76697
▁mevcut	-8.76803
sinin	-8.76941
▁yaşam	-8.77083
▁satış	-8.7712
▁güçlü	-8.77148
▁gerekiyor	-8.77278
▁telefon	-8.77308
çi	-8.77444
▁ücretsiz	-8.77524
▁tedavi	-8.77732
▁güvenlik	-8.77774
▁%	-8.77824
6	-8.77968
▁Cumhurbaşkanı	-8.78073
▁zarar	-8.78203
▁alt	-8.78261
▁alma	-8.78457
on	-8.78537
▁İşte	-8.78665
0	-8.78677
iyor	-8.78794
▁ilgi	-8.78803
▁sorun	-8.78855
sal	-8.78911
▁Ana	-8.78953
ında	-8.79012
▁yaz	-8.79477
▁düşük	-8.79493
▁dolar	-8.79595
▁hak	-8.79699
▁araç	-8.79864
://	-8.79865
▁ortak	-8.80028
▁ayrıca	-8.80142
▁bi	-8.80247
▁U	-8.8029
▁Mustafa	-8.80413
▁Ağustos	-8.80501
▁Müdürlüğü	-8.80565
▁cevap	-8.80869
▁hesap	-8.80911
▁nedir	-8.80972
▁on	-8.81082
▁varsa	-8.81098
▁beraber	-8.81121
leme	-8.81198
9	-8.81237
▁şeklinde	-8.814
▁R	-8.81487
▁50	-8.81707
ba	-8.81936
▁Al	-8.82009
▁tamamen	-8.8234
▁Özel	-8.82386
î	-8.82428
▁baş	-8.82589
▁N	-8.82863
▁edin	-8.82932
gi	-8.83257
▁yana	-8.83374
▁meydana	-8.83571
sanız	-8.83602
ha	-8.83623
▁aldığı	-8.83652
yu	-8.83672
▁yemek	-8.83797
▁yapılacak	-8.83943
▁Milli	-8.84009
▁ekonomik	-8.84074
▁Y	-8.84096
va	-8.84201
▁bulunduğu	-8.84223
ay	-8.84239
▁sonucu	-8.84446
▁kitap	-8.84525
▁doğal	-8.84528
▁film	-8.8478
▁verdiği	-8.8481
▁sene	-8.84858
▁yüzden	-8.84858
▁isteyen	-8.8487
▁tespit	-8.84931
ndaki	-8.85033
▁Rusya	-8.85059
▁Re	-8.85089
▁ticaret	-8.8512
▁ciddi	-8.85131
▁ses	-8.85138
▁sonrası	-8.85382
▁kaç	-8.85546
to	-8.85563
▁günlük	-8.85628
▁müşteri	-8.85674
▁hizmeti	-8.85691
▁Bakanı	-8.85721
▁hep	-8.85825
mesi	-8.8587
▁Büyükşehir	-8.85873
▁enerji	-8.86004
▁2.	-8.86027
▁insanlar	-8.86232
▁ihtiyaç	-8.86581
tu	-8.86679
mizi	-8.86827
▁genç	-8.87088
▁arasındaki	-8.87281
ydi	-8.8731
▁çünkü	-8.87461
▁Çin	-8.87595
▁aile	-8.87714
_	-8.87746
▁Anadolu	-8.87787
▁*	-8.87818
▁yoğun	-8.87871
▁Ay	-8.87877
▁2014	-8.88071
ek	-8.88364
▁il	-8.88393
▁medya	-8.8848
be	-8.88482
▁gelecek	-8.88495
▁sonunda	-8.88622
▁i	-8.88779
us	-8.88813
▁dile	-8.88843
▁Ç	-8.88859
▁Nasıl	-8.88945
▁VE	-8.88958
▁yıllık	-8.88985
▁tavsiye	-8.89089
abilirsiniz	-8.89165
▁Ar	-8.89168
▁28	-8.89221
▁V	-8.89427
▁b	-8.89563
▁sayısı	-8.89609
san	-8.89802
▁geç	-8.89983
spor	-8.90089
▁itibaren	-8.9047
st	-8.90474
▁arama	-8.90555
▁saç	-8.9058
▁of	-8.90625
▁amacıyla	-8.90626
▁vardı	-8.90746
▁haline	-8.90813
▁2013	-8.90924
10	-8.90992
▁zaten	-8.90998
▁siz	-8.91069
▁Büyük	-8.91251
▁1.	-8.91438
▁alınan	-8.91487
▁toplam	-8.91753
▁Devlet	-8.91988
▁kaliteli	-8.92126
cu	-8.92134
▁etme	-8.92179
▁Özellikle	-8.92224
▁savaş	-8.92225
▁milyar	-8.92446
▁teslim	-8.92468
▁Yani	-8.92497
▁güç	-8.92531
▁açıklama	-8.92627
▁kan	-8.92661
ndeki	-8.92701
▁edecek	-8.9283
▁durumu	-8.92934
maktadır	-8.93192
▁Şimdi	-8.93257
▁27	-8.93302
▁seçim	-8.93359
ing	-8.93368
▁edilmesi	-8.93432
▁yaş	-8.93452
▁et	-8.93596
▁bulunmaktadır	-8.93807
▁Öz	-8.93868
▁altına	-8.93918
▁El	-8.93965
▁dönem	-8.94201
bu	-8.94299
▁takım	-8.94464
Ç	-8.94598
▁yayın	-8.94609
ver	-8.94647
Z	-8.9467
▁Haberler	-8.94848
▁yüz	-8.94896
dığı	-8.94958
▁De	-8.94959
▁Sosyal	-8.9498
▁düzenlenen	-8.95126
▁resmi	-8.95141
es	-8.95203
▁dönemde	-8.95256
▁dair	-8.95361
▁Er	-8.95422
▁oluşan	-8.9544
▁the	-8.95495
▁sağ	-8.95496
nün	-8.95564
ğ	-8.95628
▁dil	-8.95675
▁üye	-8.95772
▁ağır	-8.95779
▁Prof	-8.95869
▁26	-8.95875
▁adım	-8.95889
mektedir	-8.95905
▁Kara	-8.9592
▁şehir	-8.9628
ke	-8.96417
▁yanlış	-8.96682
▁Ahmet	-8.96686
▁ince	-8.96745
▁yabancı	-8.97046
▁yolu	-8.97083
abilir	-8.97087
▁iletişim	-8.97091
▁insanların	-8.97205
▁Aynı	-8.97485
▁proje	-8.97622
▁bilgiler	-8.97675
▁Sayfa	-8.97691
▁üretim	-8.97815
der	-8.97849
unu	-8.97978
▁dünyanın	-8.97979
muş	-8.98073
min	-8.98154
ının	-8.98225
▁yerde	-8.98471
▁alıyor	-8.98571
▁escort	-8.9859
▁Fakat	-8.98678
▁Bursa	-8.98755
za	-8.98757
▁olma	-8.99078
▁kayıt	-8.99101
▁hatta	-8.99148
▁İyi	-8.99178
▁şimdi	-8.99222
mızı	-8.99231
▁>	-8.9929
iye	-8.99315
▁Türkçe	-8.99316
▁kız	-8.99481
▁gerçekten	-8.99717
▁araya	-8.99854
▁sağlar	-8.99868
net	-8.99907
▁aslında	-8.99932
▁sonrasında	-8.99996
▁sayıda	-9.0013
▁olmadığı	-9.00203
▁yönetim	-9.0032
▁olmadığını	-9.00328
▁beni	-9.00356
▁çözüm	-9.00368
▁ona	-9.00523
▁Müdürü	-9.00645
▁durumunda	-9.00709
▁soru	-9.01053
▁c	-9.01086
▁içi	-9.01184
▁çevre	-9.01284
▁•	-9.01359
▁ayında	-9.01389
▁öyle	-9.01431
▁yaşanan	-9.01523
▁başlayan	-9.01557
▁Güncelleme	-9.01759
çı	-9.01804
▁aracı	-9.01922
kan	-9.02021
▁başına	-9.02166
▁sizi	-9.02179
▁Diğer	-9.02307
▁yoktur	-9.02334
ebilir	-9.02365
tur	-9.02376
▁etkili	-9.02425
▁yaşayan	-9.02513
larımız	-9.02758
▁dizi	-9.02765
▁29	-9.02777
▁yılı	-9.02783
▁yapı	-9.02863
▁kendini	-9.0295
▁imza	-9.03113
▁başvuru	-9.03214
▁site	-9.03393
▁yeterli	-9.03399
▁fakat	-9.0389
▁marka	-9.03922
▁yapılması	-9.03967
▁gerçekleştir	-9.04188
▁iddia	-9.04201
▁siteleri	-9.04215
lük	-9.04286
▁izle	-9.04314
▁dört	-9.04315
▁Suriye	-9.04315
sun	-9.04317
ga	-9.04326
▁gerektiğini	-9.04767
▁video	-9.04963
▁rahat	-9.04978
W	-9.05008
▁önceki	-9.05041
▁mutlu	-9.05301
diği	-9.05647
▁alanında	-9.05713
▁arkadaş	-9.05757
▁[	-9.05923
▁kararı	-9.05989
▁örnek	-9.06025
▁ediyorum	-9.06037
▁3.	-9.06106
▁yağ	-9.0613
▁belirten	-9.06296
LER	-9.06373
▁renk	-9.06434
▁belediye	-9.06572
▁servis	-9.06607
▁merkezi	-9.06623
▁başında	-9.0669
▁yan	-9.06729
▁bak	-9.06744
▁Bugün	-9.06821
sınız	-9.06958
▁yapma	-9.0702
▁yaparak	-9.07038
▁vermek	-9.07114
▁siyasi	-9.0713
zi	-9.07251
▁önem	-9.07254
▁anne	-9.07272
maya	-9.073
▁kullan	-9.07313
▁oyuncu	-9.07438
▁40	-9.07582
w	-9.07614
▁Para	-9.07678
▁yazı	-9.07687
ist	-9.07703
▁din	-9.07767
▁Tarihi	-9.07803
bir	-9.07849
▁2022	-9.07866
lerimiz	-9.08104
os	-9.08125
▁parça	-9.08187
▁istiyorum	-9.08207
▁casino	-9.0833
▁Yönetim	-9.08414
ydı	-9.08418
▁kullanım	-9.0842
▁polis	-9.0842
▁W	-9.08494
▁uçak	-9.08551
▁dış	-9.0868
▁sistem	-9.08722
▁buna	-9.08775
▁edilir	-9.08867
▁oy	-9.08902
j	-9.09057
▁can	-9.09158
▁orta	-9.09185
ül	-9.092
sında	-9.0924
LAR	-9.09303
▁kullanarak	-9.0935
▁hala	-9.09365
▁çoğu	-9.09527
dim	-9.0982
▁sağlıklı	-9.09845
▁güncel	-9.10182
▁zorunda	-9.10252
▁Kur	-9.10342
▁alanda	-9.10391
▁yere	-9.10503
▁hayat	-9.1053
▁puan	-9.10641
▁hedef	-9.10673
▁Bitcoin	-9.10709
▁k	-9.1074
▁gerekmektedir	-9.10777
▁adam	-9.10905
▁sizlere	-9.10996
▁erkek	-9.11157
▁suç	-9.11176
▁veri	-9.11255
▁mobil	-9.11306
▁sağlamak	-9.11552
nize	-9.1159
▁mutlaka	-9.11612
▁olay	-9.11672
▁Antalya	-9.11705
Ö	-9.1175
▁firma	-9.1179
▁şirket	-9.11873
▁ak	-9.11875
▁arada	-9.11882
▁bulunuyor	-9.1223
▁net	-9.1227
▁yandan	-9.1252
▁çalışmaları	-9.12534
▁Ev	-9.1257
▁uluslararası	-9.12571
▁işi	-9.12765
▁beri	-9.12777
▁2012	-9.12837
go	-9.1292
sının	-9.12953
▁araştırma	-9.1297
▁işaret	-9.12993
▁re	-9.12996
▁&	-9.1304
▁sayılı	-9.13155
▁The	-9.13416
▁Birliği	-9.13426
▁açıklamada	-9.13439
▁görmek	-9.1359
▁olun	-9.13592
▁online	-9.13606
len	-9.13627
­	-9.13717
layan	-9.13812
▁Burada	-9.13813
▁opsiyon	-9.13972
▁La	-9.14189
▁Almanya	-9.14299
▁sağlayan	-9.14348
▁İlçe	-9.14457
▁merak	-9.14515
lo	-9.14533
▁gider	-9.14752
▁m	-9.14845
▁L	-9.14848
▁kişiler	-9.14876
miştir	-9.14912
▁Gül	-9.14958
▁önünde	-9.15002
▁arası	-9.1517
iş	-9.15224
▁bilgileri	-9.15371
▁Cumhuriyet	-9.15416
lanan	-9.15429
do	-9.15597
▁sahiptir	-9.16062
▁güven	-9.16099
▁Atatürk	-9.16275
▁İçin	-9.1629
▁bizi	-9.16349
▁normal	-9.16441
▁adlı	-9.16463
ran	-9.16558
nıza	-9.16592
▁dışı	-9.16666
▁kişisel	-9.16693
▁belirtti	-9.16814
ür	-9.16837
▁mal	-9.17109
▁teknoloji	-9.17149
▁dolu	-9.17206
▁madde	-9.1726
▁to	-9.17314
▁olmuş	-9.17339
▁Kadın	-9.17396
ız	-9.17651
men	-9.1767
çe	-9.17684
▁Yüksek	-9.17691
▁İslam	-9.17742
▁başta	-9.17792
▁Google	-9.17851
▁olmaz	-9.1787
▁genellikle	-9.17909
▁herkes	-9.17915
▁hayatını	-9.17935
▁basın	-9.17937
▁güvenilir	-9.17996
▁değerli	-9.18091
▁uzak	-9.18201
ktan	-9.18258
▁Bey	-9.18328
fa	-9.18691
▁sen	-9.19021
son	-9.19098
▁09	-9.1916
ö	-9.19351
▁ders	-9.19517
▁baskı	-9.19558
▁şeyler	-9.19603
▁Derneği	-9.19648
▁bilgisayar	-9.19666
mizin	-9.20238
▁lira	-9.20331
iyle	-9.20381
▁sonuç	-9.20402
▁eğer	-9.20454
▁parti	-9.20481
▁ürünleri	-9.20521
▁kullandı	-9.2068
▁alanı	-9.20687
up	-9.20716
Lİ	-9.21044
▁sıcak	-9.21065
▁fiyatı	-9.21102
mize	-9.21169
▁''	-9.212
▁kilo	-9.21201
▁Amerika	-9.21288
▁fotoğraf	-9.21362
▁X	-9.21406
▁test	-9.2142
▁ediyoruz	-9.21461
▁öğrenci	-9.21463
▁ister	-9.21484
▁gösteren	-9.21526
▁?	-9.21689
▁kimse	-9.21795
▁işlemi	-9.21798
▁benzer	-9.21919
▁grup	-9.22003
▁Şu	-9.22021
▁31	-9.22098
▁ünlü	-9.22123
▁alarak	-9.22174
İN	-9.22186
kar	-9.22232
▁tasarım	-9.22233
▁fiyatları	-9.22312
▁olursa	-9.2232
▁akşam	-9.22324
▁lazım	-9.2237
▁Z	-9.2256
▁okul	-9.22578
▁toplum	-9.22698
▁halde	-9.22711
as	-9.22756
▁uzman	-9.22766
▁oranı	-9.22768
can	-9.22785
▁sınıf	-9.22812
▁p	-9.22815
▁Kemal	-9.22842
▁Kültür	-9.22868
▁kamu	-9.22903
▁yeri	-9.22914
▁şeyi	-9.22938
▁profesyonel	-9.2296
DA	-9.22962
▁ceza	-9.23003
Ü	-9.23097
▁+	-9.23248
-19	-9.23323
▁tepki	-9.2333
▁güvenli	-9.23334
▁kullanıcı	-9.23414
▁beş	-9.23454
▁Osmanlı	-9.23494
▁basit	-9.23508
▁Aydın	-9.23526
▁belirli	-9.23538
▁defa	-9.23557
lerinizi	-9.2357
▁yapılır	-9.23812
▁desteği	-9.23988
or	-9.24092
▁Lig	-9.24126
▁Peki	-9.24147
▁özelliği	-9.24178
▁sırada	-9.24351
▁belki	-9.24387
sen	-9.24397
▁henüz	-9.24408
▁İnsan	-9.24422
▁artış	-9.24633
teki	-9.24736
▁maç	-9.24746
▁yap	-9.24883
▁kim	-9.2491
20	-9.25041
▁sanat	-9.25191
▁temiz	-9.25204
▁ilan	-9.25222
▁bakım	-9.25237
▁başarı	-9.25275
ro	-9.25292
▁indir	-9.25327
▁No	-9.25373
▁değerlendirme	-9.25401
inden	-9.25434
dım	-9.25589
▁öne	-9.25594
DE	-9.25649
▁mü	-9.25807
▁bilim	-9.25823
▁Anasayfa	-9.25829
▁kurum	-9.25833
▁Ma	-9.25859
▁and	-9.25877
▁altın	-9.26002
▁yurt	-9.26045
▁Ticaret	-9.26064
▁ederim	-9.26184
liğe	-9.26259
▁Can	-9.26269
▁Fenerbahçe	-9.26281
▁diyor	-9.26362
▁gören	-9.26492
posta	-9.26552
▁hakkı	-9.26652
▁kendisine	-9.26725
▁pazar	-9.26728
▁döneminde	-9.26735
lardır	-9.26792
▁sezon	-9.26968
▁müzik	-9.26987
▁alım	-9.27032
َ	-9.27084
lığa	-9.27099
▁hasta	-9.27132
▁önüne	-9.27171
▁katkı	-9.27205
taki	-9.27236
▁etki	-9.2727
▁sürede	-9.27293
ze	-9.27319
co	-9.27411
▁yapıldı	-9.27415
▁Na	-9.27548
dür	-9.27577
▁Merkez	-9.27598
▁diş	-9.27605
▁sebep	-9.27639
▁aylık	-9.278
▁Kar	-9.2788
▁reklam	-9.27917
▁terör	-9.27929
▁önemlidir	-9.27954
▁özellikleri	-9.28182
▁ileri	-9.28183
vi	-9.28225
ça	-9.28233
▁Galatasaray	-9.28345
dığını	-9.28395
▁Ara	-9.28412
▁isim	-9.28471
▁çalışmalar	-9.28472
▁açıkladı	-9.28525
larınızı	-9.28527
▁sorunu	-9.28598
▁hayata	-9.28669
▁İki	-9.28772
▁yaşındaki	-9.2878
▁beyaz	-9.28788
▁halk	-9.28822
▁ücret	-9.28836
X	-9.289
▁engel	-9.28957
▁Bunu	-9.29242
▁Sadece	-9.29254
▁yapıyor	-9.29345
▁sonraki	-9.29395
▁Tek	-9.29541
▁hisse	-9.29692
▁vergi	-9.29695
▁programı	-9.2985
▁Bahis	-9.2987
▁aktif	-9.29872
▁günlerde	-9.29912
▁deniz	-9.29941
▁yalnızca	-9.3012
▁işe	-9.30282
ebilirsiniz	-9.30286
▁ortalama	-9.30293
▁kesinlikle	-9.3035
▁ilçe	-9.30572
▁faiz	-9.30602
van	-9.30675
▁tarih	-9.3104
lanma	-9.3107
fi	-9.31078
▁Sa	-9.31109
▁anlamda	-9.31112
▁etmektedir	-9.31187
mıştır	-9.31241
ton	-9.31357
▁Örneğin	-9.31404
ber	-9.31435
▁program	-9.31482
▁g	-9.31507
▁Doğu	-9.31537
▁kullanımı	-9.31615
▁kuru	-9.31637
▁verir	-9.31703
▁kaldı	-9.3173
▁yerinde	-9.31751
▁tahmin	-9.31768
▁zengin	-9.31796
12	-9.31848
▁verme	-9.32061
▁araba	-9.32232
▁Beşiktaş	-9.32251
▁karşısında	-9.32256
▁istediğiniz	-9.32325
11	-9.32357
▁onları	-9.3239
▁işlemleri	-9.32516
▁etmesi	-9.32611
▁2011	-9.32623
▁dünyada	-9.32632
▁‘	-9.32706
ılan	-9.32708
▁acı	-9.32845
▁AB	-9.3285
▁İngiltere	-9.32868
▁yerel	-9.32879
▁alın	-9.32959
▁model	-9.33016
▁hizmetleri	-9.33046
▁Ya	-9.3315
▁Bazı	-9.33196
▁yapmaya	-9.33199
▁is	-9.33203
▁alışveriş	-9.3325
let	-9.33277
▁belirterek	-9.33377
▁Mi	-9.33487
▁görüntü	-9.33491
▁banka	-9.33564
▁oyunu	-9.33645
▁süresi	-9.33667
▁veriyor	-9.33685
▁harika	-9.33805
nü	-9.33863
▁kara	-9.33865
▁süreci	-9.33943
▁analiz	-9.34097
▁yıllarda	-9.34142
▁Teknik	-9.342
▁faaliyet	-9.34272
imiz	-9.3433
LARI	-9.3433
▁olumsuz	-9.34472
sunuz	-9.34481
▁J	-9.34617
▁demek	-9.34618
▁Deniz	-9.3477
▁olumlu	-9.34949
▁birisi	-9.34963
▁risk	-9.35038
▁İran	-9.35162
▁Başkanlığı	-9.35206
▁etkisi	-9.35309
▁liste	-9.35329
▁Mahallesi	-9.35388
▁yapmış	-9.35434
▁aşağıdaki	-9.35497
▁bilinen	-9.35528
%	-9.35547
dik	-9.35606
Bir	-9.35629
▁ikili	-9.35636
ot	-9.35687
▁onların	-9.35735
▁yazılım	-9.35788
▁60	-9.35788
▁olmuştur	-9.35795
▁çift	-9.35847
▁aşı	-9.35888
lerdir	-9.35902
sak	-9.35953
▁vb	-9.36258
▁Yardımcısı	-9.36273
▁AKP	-9.36475
▁sonucunda	-9.36537
ch	-9.36635
?"	-9.36664
▁taş	-9.36779
▁Bankası	-9.36827
▁TV	-9.36992
▁darbe	-9.37199
▁katıldı	-9.37239
▁Ö	-9.3728
▁alır	-9.37409
ıcı	-9.37469
▁Hem	-9.37492
▁emin	-9.37547
▁kaynak	-9.3768
▁yoksa	-9.37758
▁bunlar	-9.37982
ko	-9.37992
▁çeken	-9.38055
▁yasa	-9.38171
▁Altın	-9.38249
▁yıldır	-9.38274
▁üniversite	-9.38292
iyet	-9.38346
▁anlamına	-9.38362
MA	-9.38501
th	-9.38536
00	-9.38594
▁Cuma	-9.38663
▁sınav	-9.38717
▁aday	-9.38723
▁ekran	-9.38725
19	-9.38838
▁transfer	-9.3885
▁Tarih	-9.38873
▁kişilerin	-9.38923
▁Adana	-9.38959
ly	-9.38966
mu	-9.39035
▁sona	-9.39218
▁oda	-9.39276
▁eş	-9.39308
▁kurulu	-9.39449
▁Uzun	-9.3947
▁edebilirsiniz	-9.39477
▁dün	-9.3948
▁üçüncü	-9.39553
▁tane	-9.3957
▁hayal	-9.39682
▁Pazar	-9.39735
▁Giriş	-9.39753
IN	-9.39783
▁Orta	-9.39854
▁ayı	-9.39942
LERİ	-9.39986
▁Facebook	-9.40027
▁dava	-9.40152
▁Le	-9.40224
YA	-9.40269
▁doğrudan	-9.40277
▁Web	-9.40282
▁ilçesinde	-9.40316
▁elektrik	-9.40321
▁erken	-9.40411
▁·	-9.40423
▁olmadan	-9.4049
J	-9.40555
▁otomatik	-9.40659
▁etmiş	-9.40688
▁popüler	-9.40696
▁forex	-9.40723
sinden	-9.40756
id	-9.40784
▁mükemmel	-9.40919
▁Bilgi	-9.40945
▁Uluslararası	-9.41082
▁kullanma	-9.41145
▁müdahale	-9.41243
▁ürünler	-9.41337
▁tabi	-9.41437
liğini	-9.4144
mıza	-9.4155
▁kart	-9.41587
▁alacak	-9.41626
▁Yılmaz	-9.41643
▁yara	-9.41652
nce	-9.41683
yen	-9.41766
▁etmeye	-9.41795
▁kendine	-9.41986
ad	-9.42017
▁Çocuk	-9.42038
ck	-9.42056
▁asla	-9.42197
▁sayı	-9.42207
▁sert	-9.42265
▁500	-9.42297
▁insanın	-9.42352
▁iptal	-9.42404
▁nedeni	-9.42443
▁Di	-9.42501
▁gol	-9.4251
▁Bakan	-9.42626
▁sabah	-9.42629
▁olmasına	-9.42645
▁yönetimi	-9.42649
▁sayfa	-9.4268
▁arka	-9.4276
ici	-9.42838
Sİ	-9.42971
▁yazılı	-9.4299
▁içine	-9.42993
▁Buna	-9.43006
▁otomobil	-9.43051
▁kas	-9.43145
▁plan	-9.43192
▁personel	-9.4324
ılır	-9.4326
▁Dakika	-9.43389
▁Kendi	-9.43396
▁yaygın	-9.43555
▁neler	-9.4356
▁hız	-9.43586
▁piyasa	-9.43622
suz	-9.43724
▁https	-9.43726
lanmış	-9.43767
▁vakit	-9.43821
▁08	-9.43933
fe	-9.43952
▁amacı	-9.44009
▁aşırı	-9.44017
▁kartı	-9.44022
▁görüş	-9.44042
▁yapacak	-9.44105
▁akıllı	-9.44205
▁Aile	-9.44244
▁yasal	-9.44487
▁seçenekleri	-9.44539
▁öncesi	-9.44612
▁kap	-9.44644
▁bas	-9.44652
▁ton	-9.44655
no	-9.44675
▁askeri	-9.44724
▁bayan	-9.44734
▁İsrail	-9.44779
▁kültür	-9.44814
▁kamera	-9.44841
▁altı	-9.44847
imi	-9.44856
siyle	-9.44858
▁bundan	-9.4487
▁dahi	-9.44968
▁adresi	-9.44974
▁kesin	-9.45094
▁yılda	-9.45097
▁Böylece	-9.45126
▁2010	-9.45247
▁getirdi	-9.45332
▁Yorum	-9.45432
▁konut	-9.45645
▁bölge	-9.45679
▁baba	-9.45718
▁:)	-9.45774
▁haberleri	-9.45804
lenen	-9.45881
▁birinci	-9.45926
▁Yine	-9.45969
mızın	-9.46065
▁kaza	-9.46119
▁be	-9.46129
▁geçti	-9.46136
▁seyahat	-9.46143
▁üyesi	-9.46178
▁performans	-9.46184
▁bol	-9.46294
▁biçimde	-9.46296
▁getiren	-9.46301
▁içeren	-9.46311
▁esas	-9.46337
ladı	-9.46347
▁verildi	-9.46358
▁koruma	-9.46372
▁doğum	-9.46463
ılmış	-9.46596
▁onlar	-9.46702
▁oyunları	-9.46728
▁tatil	-9.46792
▁aç	-9.4682
▁01	-9.46901
▁ihtiyacı	-9.46966
▁Sayın	-9.47031
hi	-9.47085
▁sipariş	-9.47086
▁evde	-9.47128
mda	-9.47153
▁mesaj	-9.47178
▁hoş	-9.47349
LI	-9.47366
▁inşa	-9.47406
▁giden	-9.47419
Türkiye	-9.47556
▁yanıt	-9.4757
>	-9.47618
▁kapalı	-9.47733
▁yada	-9.4776
▁silah	-9.47841
▁ışık	-9.47873
▁Fatih	-9.47926
+	-9.47936
▁İnternet	-9.47952
▁rol	-9.48021
▁dijital	-9.48042
▁davet	-9.48074
www	-9.48084
▁ülkenin	-9.48142
▁Hava	-9.48415
▁kafa	-9.48549
mizde	-9.48588
▁Ş	-9.48611
▁yavaş	-9.48634
▁Çalışma	-9.48672
muz	-9.48707
▁düşünce	-9.48736
▁ucuz	-9.48927
kten	-9.49048
▁Halk	-9.49092
▁Baş	-9.49144
meye	-9.49196
▁kon	-9.49295
▁çıkıyor	-9.49333
▁yapabilirsiniz	-9.49372
▁km	-9.49464
▁kazanç	-9.49468
▁başlar	-9.49495
▁Se	-9.49541
▁ortadan	-9.49636
▁hediye	-9.49663
▁Bet	-9.49684
▁Escort	-9.49701
▁Pro	-9.49815
▁ağ	-9.49884
▁kapı	-9.49893
▁Sen	-9.49911
▁Milletvekili	-9.49932
▁alıp	-9.49943
▁Co	-9.4996
▁sol	-9.50013
ıldı	-9.50039
▁Da	-9.50105
yim	-9.50113
▁der	-9.50149
▁bazen	-9.50239
▁Ba	-9.50278
▁bunları	-9.50304
▁taşıma	-9.50306
▁kır	-9.50416
▁suyu	-9.50419
▁hata	-9.50441
gen	-9.50454
▁imkanı	-9.5052
diğini	-9.50537
▁ekipleri	-9.50643
▁serbest	-9.50658
▁Güncel	-9.50661
▁4.	-9.5069
▁fayda	-9.50693
▁top	-9.50717
ev	-9.50796
köy	-9.50809
▁hesabı	-9.50837
maz	-9.50844
▁olduğuna	-9.50936
50	-9.50975
▁dönüş	-9.51026
▁orada	-9.51049
▁çocuklar	-9.51116
▁olmaya	-9.51139
▁Gazetesi	-9.51146
▁Rus	-9.51181
▁değeri	-9.5123
▁isimli	-9.51393
▁yeşil	-9.5142
ilen	-9.51446
▁gerçekleştiril	-9.51505
yiz	-9.516
▁inceleme	-9.51653
▁giren	-9.51683
▁detaylı	-9.51729
▁başkanı	-9.51763
▁Partisi	-9.51773
▁kendisi	-9.51804
▁modelleri	-9.51841
▁ölüm	-9.51893
▁modern	-9.51896
▁gıda	-9.51934
▁Sanayi	-9.51941
▁konuşma	-9.5197
▁Teknoloji	-9.51999
tü	-9.52008
▁boş	-9.52025
▁bonus	-9.52031
nızda	-9.52063
▁Benim	-9.52081
▁kendisini	-9.5215
▁uygulaması	-9.52166
▁Güvenlik	-9.5217
▁yaparken	-9.52175
30	-9.52274
▁Araştırma	-9.52326
leşme	-9.52403
▁edilmiş	-9.52435
▁alındı	-9.52454
▁hayatı	-9.52555
▁malzeme	-9.52568
▁Günü	-9.52758
am	-9.52777
▁temsil	-9.52794
▁kullanılır	-9.5294
▁tip	-9.53046
▁milli	-9.53086
▁lisans	-9.5309
▁d	-9.53128
ış	-9.53156
▁sanayi	-9.5318
25	-9.53247
▁Do	-9.53263
▁Eski	-9.5331
▁kalp	-9.53359
▁saygı	-9.53394
▁doğrultusunda	-9.53439
▁geçmiş	-9.53442
▁eğitimi	-9.53486
gu	-9.53536
▁bunların	-9.53613
per	-9.53671
▁kazan	-9.53817
▁diyerek	-9.5383
nca	-9.53903
▁ka	-9.53939
ından	-9.53944
▁işte	-9.54043
▁olmasını	-9.54115
▁alınması	-9.54247
▁Kıbrıs	-9.54292
▁kripto	-9.54413
▁Başbakan	-9.54427
▁belge	-9.5452
▁meslek	-9.54554
▁hayvan	-9.54707
â	-9.54733
▁sat	-9.54809
▁hafif	-9.54847
lanması	-9.54916
▁Sanat	-9.54937
▁deneme	-9.54948
▁almış	-9.54972
▁görme	-9.551
▁üzerindeki	-9.55153
lenme	-9.55197
▁kullanmak	-9.55198
▁yazar	-9.55204
▁ismi	-9.5528
▁kısmı	-9.5541
▁güneş	-9.55426
=	-9.55482
▁Sonra	-9.55518
▁Fransa	-9.55623
lenmiş	-9.55625
▁düşünüyorum	-9.55646
lak	-9.55699
▁Meclis	-9.557
▁Küçük	-9.5576
▁düzenli	-9.55859
▁yola	-9.5588
▁döviz	-9.55885
▁Recep	-9.55887
▁çay	-9.55894
yon	-9.55991
▁ilişki	-9.5603
▁ediliyor	-9.56068
▁sıkıntı	-9.56157
▁söyleyen	-9.56184
▁sebebi	-9.56315
▁Van	-9.56359
ık	-9.56363
▁kırmızı	-9.56375
▁nokta	-9.56385
▁toprak	-9.56564
▁In	-9.56655
▁gaz	-9.56682
▁Süper	-9.56811
▁onlara	-9.56833
▁Demir	-9.56853
▁Odası	-9.56875
▁cm	-9.56881
▁paket	-9.56894
landı	-9.56936
▁metre	-9.56952
▁tehdit	-9.56954
▁okuma	-9.57027
▁gücü	-9.57261
▁çaba	-9.57282
а	-9.57355
▁oldukları	-9.57378
tim	-9.57463
▁Murat	-9.57491
▁Canlı	-9.57615
`	-9.57664
▁Ca	-9.57817
▁yük	-9.57876
▁tak	-9.5792
▁Ek	-9.57938
seniz	-9.58017
▁Vi	-9.58053
▁çekme	-9.58068
▁neredeyse	-9.58092
▁sahne	-9.58109
ilir	-9.58123
▁Ha	-9.58198
▁edip	-9.58247
▁Bizim	-9.58296
ru	-9.58323
▁Batı	-9.58342
▁bebek	-9.58425
▁Nedir	-9.58436
▁şehit	-9.58459
▁say	-9.58491
▁200	-9.58491
▁geçiş	-9.5852
▁Kan	-9.5854
▁ticari	-9.58546
▁Irak	-9.58562
▁istiyorsanız	-9.58602
▁değişiklik	-9.58657
▁Yıldırım	-9.58726
15	-9.58768
▁işçi	-9.5877
▁Böyle	-9.5888
pe	-9.5908
ic	-9.591
▁di	-9.59109
▁korku	-9.59228
bo	-9.59263
▁geldiği	-9.5934
▁günde	-9.59348
▁Samsun	-9.59354
▁bölüm	-9.59405
lanır	-9.59445
▁te	-9.59501
▁BİR	-9.59529
▁́	-9.59534
▁Bunlar	-9.5957
ut	-9.59572
lat	-9.59587
▁almaktadır	-9.59592
▁Çevre	-9.59781
▁derin	-9.59798
ry	-9.59802
▁çıkma	-9.59949
▁lütfen	-9.60052
▁sözleşme	-9.60069
▁Güney	-9.60085
▁Fakültesi	-9.60118
ılması	-9.60129
▁ülkede	-9.60132
▁belirtilen	-9.60353
▁çık	-9.60383
▁Saat	-9.60496
▁sonu	-9.6051
▁kalite	-9.60516
▁So	-9.60564
gan	-9.60822
yım	-9.60891
▁kişilik	-9.60896
▁Genç	-9.60943
24	-9.61025
taş	-9.6106
▁ta	-9.61076
▁çıkış	-9.61211
▁Hz	-9.61293
layarak	-9.61373
▁İç	-9.61393
▁Bölge	-9.61408
▁Güzel	-9.6142
▁PKK	-9.61467
▁binlerce	-9.61544
▁işletme	-9.61554
▁Bütün	-9.61563
▁tarım	-9.61694
18	-9.61725
▁olmaktadır	-9.61765
ah	-9.61775
▁05	-9.61815
▁otel	-9.61908
▁Konya	-9.61942
▁aracılığıyla	-9.62063
▁bağ	-9.62156
▁ayak	-9.62306
▁Etiketler	-9.62319
▁yılın	-9.62321
▁geçerli	-9.62356
▁tur	-9.6236
▁saldırı	-9.62486
▁merkez	-9.62546
▁Hastanesi	-9.6266
▁Neden	-9.62667
▁Film	-9.62668
▁bağlantı	-9.62747
lerimizi	-9.62788
▁sana	-9.6283
40	-9.62844
▁yangın	-9.62868
larımızı	-9.62886
▁şirketi	-9.62972
AL	-9.63012
▁fikir	-9.63036
16	-9.63043
▁eşi	-9.63103
SI	-9.63154
▁Ro	-9.63167
sü	-9.63178
ey	-9.63204
▁Otel	-9.6333
▁Emniyet	-9.63397
▁kent	-9.63403
▁Android	-9.63423
▁Konu	-9.63427
▁Twitter	-9.63471
▁Euro	-9.6349
▁yaşında	-9.63531
▁büyüme	-9.6359
▁kaynağı	-9.63594
▁As	-9.636
iniz	-9.63637
▁At	-9.63647
▁önceden	-9.63779
nizde	-9.63829
▁olduğundan	-9.63829
ren	-9.63834
▁savunma	-9.63848
▁sorumlu	-9.63889
▁x	-9.63898
▁gir	-9.63937
▁cam	-9.63962
▁Me	-9.63964
▁Li	-9.64
▁Hasan	-9.64031
▁insanları	-9.64035
▁İngilizce	-9.64049
mm	-9.64125
▁yerini	-9.64166
▁Siz	-9.64205
▁herkesin	-9.64277
▁Tayyip	-9.64288
▁bölgesinde	-9.64353
▁noktada	-9.64403
▁)	-9.64556
▁Lo	-9.64638
▁Kocaeli	-9.64707
▁memnun	-9.64728
▁ifadelerini	-9.64741
▁kal	-9.64764
▁durumlarda	-9.64818
▁Hakkında	-9.64887
▁zamanlarda	-9.64974
▁02	-9.64988
▁Kitap	-9.65028
ger	-9.65036
▁ettiğini	-9.65117
▁Artık	-9.65176
▁kalma	-9.65235
layabilirsiniz	-9.65327
▁teklif	-9.65407
▁beslenme	-9.65423
▁şunları	-9.65471
▁olacağını	-9.65528
▁Cumhuriyeti	-9.65564
▁kazanmak	-9.6558
▁Gün	-9.65586
▁futbol	-9.65592
sıyla	-9.65595
lardı	-9.65745
▁kişiye	-9.65798
▁verecek	-9.65835
▁07	-9.65842
▁düzenleme	-9.65906
▁çalışması	-9.65924
larımızın	-9.66002
▁değiştir	-9.66018
▁girdi	-9.6608
▁çerçevesinde	-9.66137
ap	-9.66157
▁$	-9.66163
▁meyve	-9.66221
▁Yatırım	-9.66279
▁do	-9.66297
▁Yap	-9.6632
▁Uygulama	-9.66322
▁f	-9.66444
▁deneyim	-9.66451
▁2009	-9.66501
LE	-9.66514
▁erişim	-9.66543
▁İbrahim	-9.66561
▁makine	-9.66587
▁eve	-9.66663
▁yargı	-9.66749
▁Kredi	-9.66756
▁sunuyor	-9.66846
▁Evet	-9.67031
tar	-9.67047
▁dikkate	-9.67057
▁kaydetti	-9.67099
▁gösteriyor	-9.67119
▁çalışıyor	-9.67179
▁anlaşma	-9.67186
▁sunan	-9.67216
80	-9.67322
unun	-9.67366
▁Oyun	-9.67377
▁filmi	-9.67519
lendi	-9.6755
▁yaşama	-9.6756
▁öğrenciler	-9.67639
▁ekibi	-9.67656
▁ilaç	-9.67688
dar	-9.677
▁hepsi	-9.67763
▁sektör	-9.67779
▁Kuzey	-9.67782
▁yasak	-9.67808
ör	-9.6785
ünü	-9.67865
▁Var	-9.67984
▁as	-9.68084
▁İkinci	-9.6814
▁görsel	-9.68142
ımız	-9.68162
▁aşk	-9.68198
▁genelinde	-9.68253
▁dağ	-9.68292
▁işbirliği	-9.6838
alım	-9.68399
▁sayede	-9.68407
▁Pazartesi	-9.68429
▁Mo	-9.68455
abilecek	-9.68467
▁yapar	-9.68529
▁cep	-9.68559
▁hızla	-9.68648
▁er	-9.68656
▁MHP	-9.68783
▁boya	-9.68804
▁kelime	-9.68844
▁diyen	-9.68855
▁cihaz	-9.68883
▁Ra	-9.68904
▁öğretim	-9.68966
yo	-9.68991
▁kolayca	-9.69042
▁gitti	-9.69044
▁ateş	-9.69114
▁Man	-9.69135
▁katılan	-9.69175
▁emekli	-9.69252
▁sarı	-9.69271
▁Ramazan	-9.69348
▁sorunları	-9.69372
▁içerik	-9.69382
pa	-9.69397
▁sağlam	-9.695
▁giderek	-9.69501
▁bölgede	-9.69577
yor	-9.69584
▁süreç	-9.69674
lerimizin	-9.69722
mo	-9.69765
▁=	-9.69836
▁An	-9.69858
▁mahkeme	-9.6986
▁bölümü	-9.69889
▁San	-9.69962
liğin	-9.69965
▁Kanunu	-9.70068
▁kitabı	-9.70122
▁ürünü	-9.70191
▁dosya	-9.70214
▁bulunur	-9.70228
▁35	-9.70274
▁soğuk	-9.7032
▁Windows	-9.70451
▁üyelik	-9.70497
▁istiyoruz	-9.70513
sek	-9.70517
▁borsa	-9.70545
▁soruşturma	-9.70588
▁süreçte	-9.7065
hane	-9.70669
mez	-9.70675
▁Bilim	-9.7068
▁hakları	-9.70839
▁Açık	-9.70878
met	-9.70884
▁Proje	-9.70922
▁Mar	-9.71083
▁sermaye	-9.71083
▁cilt	-9.71099
▁görülen	-9.71112
▁fırsat	-9.71146
ıyoruz	-9.7115
▁anlama	-9.71173
▁şeker	-9.71286
▁kanun	-9.7135
▁bulun	-9.71369
▁sefer	-9.71485
û	-9.715
▁almaya	-9.71572
▁Diyarbakır	-9.71584
▁parçası	-9.71656
▁yerli	-9.71676
▁Müşteri	-9.71686
▁sivil	-9.71717
*	-9.71722
gin	-9.71751
▁miktar	-9.71763
▁yapılmış	-9.71772
▁Yaz	-9.71795
ME	-9.71805
▁asıl	-9.71857
▁v	-9.71862
▁kadınlar	-9.71887
yse	-9.71893
▁tatlı	-9.71908
▁sevgi	-9.71929
▁sergi	-9.72079
▁yaşadığı	-9.72123
dü	-9.72141
▁süt	-9.72142
▁Zaman	-9.72145
▁yaptıkları	-9.72162
▁indirim	-9.72163
▁Osman	-9.72191
▁Hatta	-9.72201
▁Apple	-9.72221
▁çekti	-9.72265
▁Dolayısıyla	-9.72342
▁olduğunuz	-9.72372
▁çocukların	-9.72399
▁kurulan	-9.72409
▁siyah	-9.72414
cık	-9.72416
dum	-9.72444
▁Tam	-9.72552
▁öncelikle	-9.72568
▁ederken	-9.7263
inci	-9.72649
▁tamam	-9.7267
▁kol	-9.72681
nizin	-9.72725
▁kere	-9.72775
▁kalın	-9.72809
▁yarı	-9.72864
▁alternatif	-9.7297
▁Bar	-9.73049
▁modeli	-9.73071
▁olmalıdır	-9.73102
▁Kurumu	-9.73123
▁sağlığı	-9.73167
dık	-9.73184
▁Yıldız	-9.73251
▁Çarşamba	-9.73298
▁yapımı	-9.73352
▁bilet	-9.73407
▁Ekonomi	-9.73444
▁yöntemi	-9.73501
ban	-9.73544
▁projesi	-9.73581
evi	-9.73597
op	-9.73621
▁denetim	-9.73646
▁sınır	-9.73722
▁yalnız	-9.73736
▁Mersin	-9.7377
▁kendilerine	-9.73795
▁gösterir	-9.73841
▁kira	-9.73849
ner	-9.7388
▁gözaltına	-9.73922
▁gösterdi	-9.73973
▁sonuçları	-9.74061
▁dünyaya	-9.74062
lanıyor	-9.74088
▁2008	-9.74161
sh	-9.74175
cak	-9.74195
▁resim	-9.74288
▁kazanma	-9.74371
▁motor	-9.74379
▁geçtiğimiz	-9.74442
din	-9.74586
▁toplu	-9.74597
inizi	-9.74647
ho	-9.74657
:00	-9.74702
▁maçı	-9.74794
▁küresel	-9.74794
▁ayar	-9.748
▁Gaziantep	-9.74807
▁Perşembe	-9.74838
▁Aslında	-9.74873
▁dolayısıyla	-9.74924
▁dua	-9.74951
▁teşvik	-9.74996
▁başlıyor	-9.75003
▁ye	-9.75029
▁Ürün	-9.7508
▁elektronik	-9.751
ebilecek	-9.75119
mızda	-9.75147
▁istediği	-9.75177
▁üyeleri	-9.75196
▁kur	-9.75207
▁alabilirsiniz	-9.75276
▁yarış	-9.75286
▁eksik	-9.75354
▁kadro	-9.75387
▁Ka	-9.75396
▁zamanı	-9.75431
▁Güneş	-9.75452
▁yöntem	-9.75472
ılarak	-9.75497
▁standart	-9.75523
▁istiyor	-9.75553
ağı	-9.75566
▁senin	-9.75587
kı	-9.75599
▁Çelik	-9.75601
▁toplumsal	-9.75652
▁hal	-9.75669
ınız	-9.75688
▁gazete	-9.7573
▁anlat	-9.75848
▁televizyon	-9.75877
▁taşıyan	-9.75896
tepe	-9.75912
▁Turizm	-9.75946
▁geliştirme	-9.75978
luğu	-9.75998
▁Bal	-9.76023
▁ortamda	-9.76116
▁trafik	-9.76118
ley	-9.7616
▁etkin	-9.76222
mıştı	-9.76281
▁[...]	-9.76323
▁sonuna	-9.76365
▁ol	-9.76454
▁bekliyor	-9.76461
ılıyor	-9.76468
uyor	-9.7647
▁Kanun	-9.76491
▁Müslüman	-9.76521
▁sal	-9.76586
▁adını	-9.76646
bahis	-9.76686
▁finansal	-9.76693
▁tecrübe	-9.76738
▁olanlar	-9.76753
▁Şehir	-9.76802
▁Et	-9.76828
mer	-9.7685
▁Yapılan	-9.7685
▁kahve	-9.76931
▁New	-9.7696
ıyla	-9.76962
▁hukuk	-9.76963
▁öğretmen	-9.76984
▁Ömer	-9.76995
▁kış	-9.77049
AT	-9.77068
▁Hüseyin	-9.77104
▁hazırlanan	-9.77123
▁Te	-9.77207
▁haberi	-9.77209
una	-9.77289
17	-9.77351
▁onay	-9.77357
▁sebebiyle	-9.77377
▁Gazete	-9.774
▁Göz	-9.77438
▁ekip	-9.77455
▁öğrenme	-9.77512
▁içindeki	-9.77577
▁se	-9.77629
lığını	-9.77637
▁bağımsız	-9.77642
▁Ko	-9.77684
▁değişim	-9.777
ý	-9.77811
▁virüs	-9.77835
▁sağlıyor	-9.77887
▁güvenliği	-9.77906
leyen	-9.77908
ilmesi	-9.77964
14	-9.77967
▁Vali	-9.77978
if	-9.78022
▁sistemleri	-9.78184
▁mağaza	-9.78187
▁köy	-9.78188
po	-9.7829
▁maddi	-9.783
▁bakış	-9.78304
▁tasarımı	-9.78385
▁benzeri	-9.78438
▁hastalık	-9.78508
▁gelişme	-9.78545
miyor	-9.78629
▁gelmiş	-9.78642
▁işler	-9.78695
ılacak	-9.78738
▁Tarım	-9.78748
▁bence	-9.78765
▁görüşme	-9.78821
▁olmalı	-9.78846
az	-9.78883
abiliyor	-9.78934
▁ulaşım	-9.78997
▁Sistemi	-9.79008
▁Salı	-9.79039
▁İletişim	-9.79052
▁arkadaşlar	-9.79129
▁seçeneği	-9.7917
▁vadeli	-9.79233
▁Trabzon	-9.79243
▁çizgi	-9.79259
▁başkan	-9.79266
yken	-9.79269
▁balık	-9.79333
nızın	-9.79336
▁öz	-9.79396
▁itibariyle	-9.79401
▁Gerçek	-9.79418
▁03	-9.79427
▁sürecinde	-9.79428
▁biridir	-9.79431
ser	-9.79437
lıyor	-9.79503
laşma	-9.7956
▁Cumartesi	-9.79576
▁ada	-9.79653
▁Mah	-9.79716
▁tutar	-9.79784
▁Bi	-9.79867
TE	-9.79869
▁işin	-9.79879
yum	-9.79906
iyoruz	-9.79941
▁süren	-9.7995
▁deprem	-9.80009
mıyor	-9.80027
▁sabit	-9.80041
▁bulmak	-9.80111
SA	-9.80138
▁Yaşam	-9.80154
▁ağrı	-9.8028
▁Polis	-9.80284
▁Sarı	-9.80288
lığın	-9.80365
▁olacağı	-9.80398
▁görevi	-9.8045
▁yaptır	-9.80492
▁yatak	-9.80548
elim	-9.80597
▁pay	-9.80597
▁zevk	-9.8061
yız	-9.80611
rak	-9.80624
tal	-9.80659
▁kaybetti	-9.80687
▁konuşan	-9.80756
▁dönemi	-9.80773
mişti	-9.8082
▁Online	-9.8083
acaktır	-9.80902
▁Malatya	-9.80954
▁yolcu	-9.80978
▁ülkemizde	-9.80987
▁Sitesi	-9.81003
▁Gündem	-9.81005
▁gemi	-9.81033
▁mümkündür	-9.81049
▁06	-9.81054
gerçekleştirilen	-9.811
sından	-9.81118
▁Yazar	-9.81172
▁düşen	-9.81192
Ben	-9.81213
ilmiş	-9.81234
▁gizli	-9.81343
▁me	-9.81348
▁sitesinde	-9.81413
▁kargo	-9.81498
▁demektir	-9.81508
lamak	-9.8153
▁Sultan	-9.81556
sam	-9.81563
▁Bo	-9.81566
oz	-9.8159
ss	-9.81614
▁telefonu	-9.81709
▁not	-9.81736
▁Alman	-9.81742
▁yarın	-9.81844
▁iade	-9.81847
▁Sohbet	-9.81895
▁İngiliz	-9.81901
▁lider	-9.81907
▁kullanan	-9.82017
▁vs	-9.82027
▁Yapı	-9.82041
70	-9.82071
▁açılan	-9.82102
▁yıllar	-9.82103
▁kimlik	-9.82279
▁amaçlı	-9.82329
▁00	-9.82406
▁problem	-9.82429
▁inşaat	-9.8245
▁yararlan	-9.82459
▁koronavirüs	-9.82498
▁yetkili	-9.82562
▁Pa	-9.82581
▁Bununla	-9.82625
▁mahalle	-9.827
▁getir	-9.82727
▁nefes	-9.82753
▁göster	-9.82755
▁taraf	-9.8277
EL	-9.82797
▁ma	-9.82812
▁Kürt	-9.82822
▁tanı	-9.82831
60	-9.82921
▁bütçe	-9.82977
▁Casino	-9.83033
▁grubu	-9.83045
▁Olay	-9.83078
LA	-9.83226
▁inan	-9.83247
&	-9.83261
▁düzen	-9.83285
13	-9.83291
▁engelli	-9.83373
▁vermiş	-9.83382
▁olduğumuz	-9.83387
▁hükümet	-9.83444
▁Nur	-9.83501
▁toplantı	-9.83626
▁kampanya	-9.8363
▁aşağı	-9.83669
▁gündeme	-9.83777
▁bina	-9.8378
▁Söz	-9.83784
▁Akdeniz	-9.83809
▁Ligi	-9.83812
bar	-9.83893
▁edilebilir	-9.83956
▁gerektiği	-9.8398
▁çeşit	-9.83989
▁sağlayacak	-9.83992
▁adayı	-9.84078
hat	-9.84083
▁makale	-9.84128
▁Grup	-9.8416
malıdır	-9.84164
▁yapısı	-9.84171
▁endişe	-9.84172
asyon	-9.84303
▁Destek	-9.84355
▁ortam	-9.84368
▁iPhone	-9.84372
▁uyarı	-9.84383
▁http	-9.84439
tor	-9.84474
las	-9.84481
▁sorumluluk	-9.84486
▁yapın	-9.8452
▁alıcı	-9.84525
▁takdirde	-9.8458
müş	-9.84587
ov	-9.84607
▁Şahin	-9.84685
lendirme	-9.84701
▁sinema	-9.84747
▁iken	-9.84757
ret	-9.84784
▁Ön	-9.84814
▁5.	-9.84857
▁Be	-9.84863
▁hali	-9.84879
▁bayram	-9.84952
▁Futbol	-9.84971
▁paylaş	-9.84986
▁Üniversite	-9.85013
▁Taş	-9.8503
▁çekici	-9.85112
ster	-9.85115
▁istedi	-9.85142
▁Onun	-9.85148
av	-9.85182
▁adres	-9.85187
▁yoluyla	-9.85229
▁kazanan	-9.85244
▁hakim	-9.85274
▁Öte	-9.8528
▁ölçüde	-9.85472
▁algı	-9.85479
▁park	-9.85485
▁saha	-9.85497
▁Kat	-9.85533
▁Ni	-9.85553
▁u	-9.8556
ysa	-9.85598
ildi	-9.85599
▁Amerikan	-9.85616
▁kendilerini	-9.85634
▁45	-9.85648
▁Beyaz	-9.85666
▁anlattı	-9.85689
▁Bil	-9.85697
aj	-9.85733
lem	-9.85742
▁duvar	-9.85766
▁Yer	-9.85772
▁açıdan	-9.85778
90	-9.8578
▁Enerji	-9.85787
▁sanal	-9.85803
▁rapor	-9.8584
▁anlam	-9.85874
▁platformu	-9.85888
▁olanak	-9.85894
▁ekonomi	-9.85966
▁daire	-9.8597
▁değişik	-9.85993
org	-9.86055
▁turizm	-9.86064
▁içeriği	-9.86227
▁şüpheli	-9.86259
▁mesafe	-9.86259
▁misafir	-9.86271
▁Gençlik	-9.86321
tür	-9.86369
▁Medya	-9.86417
▁dini	-9.86432
▁edildiği	-9.8644
▁böylece	-9.86443
▁karşıya	-9.8646
▁işlemler	-9.86465
▁Av	-9.86474
acağız	-9.86519
▁oranında	-9.86616
▁insanı	-9.86628
▁bakımından	-9.86688
▁servisi	-9.86762
▁yayınlanan	-9.86822
▁vermeye	-9.8687
▁hastalığı	-9.86885
▁işleme	-9.86927
▁karşılık	-9.86964
▁yıldız	-9.8701
▁80	-9.87036
kal	-9.87051
▁asker	-9.87054
▁vaka	-9.87117
EN	-9.87119
▁Si	-9.87121
▁fabrika	-9.87152
▁çağrı	-9.87175
▁açma	-9.87229
▁bal	-9.87298
▁kimi	-9.87302
▁üretimi	-9.87364
▁Kısa	-9.874
▁sevk	-9.874
iyorum	-9.87439
▁bitki	-9.87586
▁tedavisi	-9.87633
▁sıkı	-9.87654
▁cezası	-9.87723
▁vermektedir	-9.87736
mde	-9.87821
▁otobüs	-9.8783
▁eylem	-9.87865
▁operasyon	-9.87914
▁Şube	-9.87918
▁hoca	-9.8793
▁anında	-9.87935
▁buraya	-9.87945
▁FETÖ	-9.87996
▁bulabilirsiniz	-9.88056
▁san	-9.88112
tığı	-9.88208
▁yumurta	-9.88209
▁ruh	-9.88229
▁açıklaması	-9.88239
▁oranları	-9.88272
cılık	-9.88356
▁yalan	-9.88377
▁yatırma	-9.8849
▁acil	-9.88493
▁eşya	-9.88538
▁Orman	-9.88569
Ha	-9.8857
▁Kamu	-9.88582
▁rahatsız	-9.88616
▁Ver	-9.8863
▁ulusal	-9.88638
▁atan	-9.88663
▁katılım	-9.88699
bey	-9.88704
▁Mobil	-9.88713
▁si	-9.8878
▁garanti	-9.88822
▁gelmesi	-9.88837
▁tarihleri	-9.88846
▁nerede	-9.88852
▁idi	-9.88864
▁pratik	-9.89001
▁kazandı	-9.89019
▁Pi	-9.89027
▁kaldır	-9.89039
▁Grubu	-9.89064
▁miktarda	-9.89066
▁mezun	-9.89163
▁Saç	-9.89242
▁numara	-9.89247
▁Çanakkale	-9.89256
▁HDP	-9.89271
▁Bundan	-9.89317
var	-9.89318
▁babası	-9.89372
▁hastane	-9.89383
▁ofis	-9.89388
▁tanım	-9.8939
▁yöntemleri	-9.89436
▁04	-9.8944
▁bilgiye	-9.89507
mar	-9.89535
21	-9.89582
▁ilginç	-9.89624
▁@	-9.89662
▁duygu	-9.89727
05	-9.89816
lenir	-9.89834
he	-9.89843
▁planı	-9.89863
▁miktarı	-9.89911
▁Kaya	-9.89918
▁kurumsal	-9.89946
leniyor	-9.89946
▁seçimi	-9.90011
▁attı	-9.90084
▁öğrencilerin	-9.9009
▁Yazı	-9.90121
layın	-9.90143
▁den	-9.90153
İM	-9.90172
lay	-9.90336
▁sunulan	-9.90362
▁yaşlı	-9.90405
▁bünyesinde	-9.90436
▁Asya	-9.9046
▁elbette	-9.90476
▁Trump	-9.90519
▁takımı	-9.9052
▁t	-9.90531
▁uyum	-9.90585
▁Okul	-9.90605
▁belirtildi	-9.90618
▁yönünde	-9.9064
▁çalış	-9.90677
▁alış	-9.90707
▁şekil	-9.90743
▁seni	-9.9084
▁verimli	-9.90942
▁doğa	-9.9097
▁numarası	-9.91091
▁farkı	-9.91102
▁bölümünde	-9.91122
▁zemin	-9.91168
▁gözlem	-9.91202
▁300	-9.91208
▁fiziksel	-9.91236
▁pazarlama	-9.91242
▁bahçe	-9.91299
▁olduklarını	-9.91321
▁belgesi	-9.91415
▁ödül	-9.915
▁kullanılması	-9.91542
ılabilir	-9.91545
▁terk	-9.91583
▁dönüşüm	-9.91611
▁amaç	-9.91652
amaz	-9.91655
▁yakından	-9.91748
▁Instagram	-9.91756
▁yapıldığı	-9.91765
▁edilecek	-9.91774
▁kriz	-9.91788
AN	-9.91791
▁Hangi	-9.91823
izm	-9.91825
▁Yeşil	-9.91841
▁aldım	-9.91865
▁İşlem	-9.91867
▁borç	-9.91892
▁sonuçlar	-9.91902
ırken	-9.91923
▁edilmiştir	-9.91941
ize	-9.91948
▁petrol	-9.91956
▁arz	-9.91993
▁Yıl	-9.92013
▁Kayseri	-9.92014
ası	-9.92019
▁esnasında	-9.92026
▁He	-9.92097
▁ölçü	-9.92192
gı	-9.92208
▁Bayramı	-9.9228
cü	-9.92293
▁edebilir	-9.92304
▁bugüne	-9.92304
▁verilmesi	-9.92307
▁evlilik	-9.92343
▁fırsatı	-9.92348
▁Video	-9.92397
▁90	-9.92411
▁kullanılabilir	-9.92461
▁www	-9.92493
▁Mü	-9.92532
▁temas	-9.9254
▁Mısır	-9.92608
▁sunar	-9.92617
▁mevcuttur	-9.92662
▁Fa	-9.92682
▁70	-9.92686
▁önde	-9.92701
▁cami	-9.92721
▁oğlu	-9.9275
▁düştü	-9.92845
.”	-9.92858
▁ücreti	-9.92867
▁rekabet	-9.92881
▁sigara	-9.92886
▁bey	-9.92906
▁seri	-9.92963
liler	-9.92977
▁herkese	-9.93037
▁Top	-9.93038
▁iz	-9.93047
▁öncesinde	-9.93061
▁Sakarya	-9.93071
▁vurgu	-9.93101
▁alımı	-9.93113
▁32	-9.93122
▁gelişmiş	-9.93179
▁for	-9.93182
▁bulunması	-9.93219
▁Önce	-9.93222
▁Koç	-9.93233
▁renkli	-9.93262
▁makinesi	-9.93287
▁konuk	-9.93298
fer	-9.93305
ji	-9.93318
▁artan	-9.93381
▁uç	-9.9344
diğimiz	-9.93457
▁kaybı	-9.93516
▁Paşa	-9.93532
▁Hizmetleri	-9.93542
▁edilmektedir	-9.93552
▁gelin	-9.93581
▁firması	-9.93617
▁buradan	-9.93619
▁ulaşabilirsiniz	-9.93662
▁sektöründe	-9.93733
▁Ukrayna	-9.93767
ünün	-9.93783
▁Mu	-9.93788
▁birbirinden	-9.93834
▁Dil	-9.93836
▁Afrika	-9.93843
Biz	-9.93874
▁Denizli	-9.93911
▁uçuş	-9.94026
▁sar	-9.94059
▁Site	-9.94061
▁akıl	-9.94083
▁civarında	-9.9409
▁getirmek	-9.94092
▁sigorta	-9.94133
▁Ta	-9.94144
▁Telefon	-9.94185
▁millet	-9.94223
vo	-9.94223
▁şık	-9.94231
ıl	-9.94238
▁Yayın	-9.94277
▁doktor	-9.94294
▁ilave	-9.94327
▁şikayet	-9.94382
▁olmaması	-9.94394
▁Ceza	-9.94413
dıkları	-9.94428
▁Rüyada	-9.94513
q	-9.94584
▁kanal	-9.94616
▁günümüzde	-9.9462
▁yaka	-9.94626
malı	-9.94632
▁Programı	-9.94685
▁masa	-9.9471
▁izleme	-9.94747
▁gereği	-9.94766
▁günler	-9.94773
▁adeta	-9.94788
!"	-9.94854
▁uyumlu	-9.94886
▁söylüyor	-9.94989
▁sizler	-9.94989
▁vatandaşlar	-9.95015
▁gel	-9.95027
▁süredir	-9.95029
▁Ege	-9.95087
▁rengi	-9.95103
▁Doğan	-9.95105
baş	-9.95113
▁Mahkemesi	-9.95119
▁Bay	-9.95134
▁İşletme	-9.9514
▁alması	-9.9516
▁anlatan	-9.95171
▁sözü	-9.95194
▁olmadı	-9.95201
lardaki	-9.95228
▁istihdam	-9.95237
▁lise	-9.95318
▁seçenek	-9.95325
▁boyu	-9.95334
▁ad	-9.9537
▁yüzünden	-9.95393
▁maruz	-9.95398
▁araştır	-9.95399
Ğ	-9.95456
▁memur	-9.95506
ket	-9.95513
▁Karadeniz	-9.95524
▁tipi	-9.95586
▁uygulamaları	-9.95597
▁by	-9.95614
26	-9.95636
▁Satış	-9.95655
eri	-9.95689
DEN	-9.95741
gar	-9.95743
▁dur	-9.95744
▁kullanıcıların	-9.95745
▁vücut	-9.95757
▁Kılıçdaroğlu	-9.95781
▁yak	-9.95795
▁orman	-9.95831
▁devre	-9.95851
▁hasar	-9.9587
▁iktidar	-9.95902
ilebilir	-9.95906
▁Arap	-9.95928
▁korumak	-9.95932
▁yolunda	-9.96
▁alanları	-9.96006
▁kadınların	-9.96078
▁başı	-9.96106
ğa	-9.96122
▁yemeği	-9.96153
▁yorumlar	-9.96284
▁arazi	-9.9629
▁6.	-9.96303
▁Muhammed	-9.96312
▁Süleyman	-9.96319
▁Birçok	-9.9635
▁halkın	-9.9637
▁sinir	-9.96434
▁aşağıda	-9.96449
▁ticareti	-9.96452
▁barış	-9.96459
masını	-9.9647
▁İsmail	-9.9647
▁ayakkabı	-9.96498
▁maske	-9.96592
▁fatura	-9.96597
ağa	-9.96615
▁Car	-9.96639
▁Park	-9.9664
▁halka	-9.96659
▁Vakfı	-9.96674
▁zorunlu	-9.96715
▁zam	-9.96737
▁Projesi	-9.96766
▁Koca	-9.9677
▁düzeyde	-9.96802
▁Ulusal	-9.9683
22	-9.96873
▁Kulübü	-9.96918
▁birini	-9.96931
▁bende	-9.96946
▁h	-9.96947
▁çek	-9.96958
▁ideal	-9.97007
▁düşüş	-9.97057
lerimize	-9.97088
Sa	-9.97105
▁cinsel	-9.97129
▁temizlik	-9.97143
▁şirketin	-9.9722
em	-9.97295
▁dalga	-9.9733
ıyorum	-9.97455
▁kültürel	-9.97469
06	-9.97475
▁verici	-9.97482
▁belirlenen	-9.9753
▁Po	-9.97547
mayı	-9.97558
▁cok	-9.97572
▁kullandığı	-9.97581
▁düşman	-9.97654
▁faydalı	-9.97655
▁Başka	-9.97709
▁aktar	-9.97724
▁demir	-9.97756
▁insanlara	-9.9776
acağı	-9.97785
▁Han	-9.97795
▁önümüzdeki	-9.97827
▁geçir	-9.97868
▁Şanlıurfa	-9.97909
▁la	-9.97912
▁noktası	-9.97934
45	-9.97969
▁politika	-9.97973
yü	-9.9802
▁Trabzonspor	-9.98043
▁zayıf	-9.9807
▁w	-9.98088
▁usta	-9.98135
sem	-9.98151
▁yapmanız	-9.98176
ama	-9.98195
▁olabilirsiniz	-9.98211
YE	-9.98238
▁Doğru	-9.98291
▁dik	-9.98308
▁Temel	-9.98332
▁görünüyor	-9.98332
▁çıkacak	-9.98353
▁strateji	-9.98447
so	-9.98458
tin	-9.98499
▁Dışişleri	-9.98513
▁Ri	-9.98518
▁Üyesi	-9.98594
▁değişikliği	-9.98663
AK	-9.98694
▁pro	-9.98714
▁tesis	-9.98748
32	-9.98759
▁tanesi	-9.98813
▁ihracat	-9.98819
▁sınırlı	-9.98842
dikleri	-9.9886
▁üret	-9.98892
▁örgüt	-9.98945
▁Öncelikle	-9.9895
▁hayırlı	-9.98992
ok	-9.99081
▁yerden	-9.99135
▁itiraz	-9.99141
▁bulma	-9.99183
▁İtalya	-9.9921
▁tarzı	-9.99251
▁birinin	-9.99258
ciler	-9.99259
▁katı	-9.9928
▁devletin	-9.99297
▁şirketleri	-9.99299
▁vererek	-9.99301
▁İle	-9.99322
▁bilimsel	-9.99325
▁ameliyat	-9.99351
▁oku	-9.99388
▁duruma	-9.99413
▁demokrasi	-9.9942
▁nesil	-9.99421
▁kanser	-9.99437
ben	-9.99494
▁eşit	-9.99495
▁olmayı	-9.99604
▁Fi	-9.99641
▁riski	-9.9967
▁yılından	-9.99724
▁çalışır	-9.99728
▁Hizmet	-9.9974
▁kurul	-9.99786
▁yolları	-9.99887
▁ısı	-9.99941
35	-9.99942
▁Yunanistan	-10.0001
▁sorunlar	-10.0002
OS	-10.0007
▁To	-10.0009
LİK	-10.0015
:30	-10.002
▁Ku	-10.0025
rt	-10.0033
eceği	-10.0035
01	-10.0049
UN	-10.0053
▁gidiyor	-10.0058
eli	-10.0067
ker	-10.0071
ment	-10.0072
▁muhteşem	-10.0074
▁dayalı	-10.0089
üm	-10.0093
▁alanlarda	-10.0101
IM	-10.0107
▁sevgili	-10.011
▁tarz	-10.0113
▁Dünyanın	-10.0114
lenmesi	-10.0114
▁kesim	-10.0115
▁gelip	-10.0121
▁çocuğun	-10.013
▁Meclisi	-10.0134
gün	-10.014
▁kuruluş	-10.0142
▁düşünme	-10.0145
▁araçları	-10.0147
▁Bodrum	-10.0151
▁karakter	-10.0153
lüğü	-10.0156
▁keyifli	-10.0159
▁isterseniz	-10.016
▁sa	-10.0163
▁oluşturmak	-10.0165
▁kalıcı	-10.0165
TA	-10.0166
▁başlayacak	-10.017
▁çalışmalarını	-10.017
makta	-10.0172
▁Ata	-10.0177
▁sunmaktadır	-10.018
▁yapılıyor	-10.0183
▁boy	-10.0186
▁Savaşı	-10.0194
▁birimi	-10.0194
▁geleneksel	-10.0198
▁z	-10.0198
▁Şirket	-10.0198
▁tıklayın	-10.0201
▁es	-10.0202
▁Veri	-10.0204
▁çalışmak	-10.0204
▁Az	-10.0208
▁em	-10.0209
▁Ki	-10.0216
▁yarar	-10.0221
▁ihale	-10.0221
▁gitmek	-10.0229
▁işleri	-10.023
▁Hayat	-10.0232
▁tabii	-10.0233
▁bonusu	-10.0235
.|	-10.0238
▁kulak	-10.0247
melidir	-10.0248
▁batı	-10.0248
▁Yemek	-10.025
DI	-10.0251
▁buldu	-10.0253
▁fikri	-10.0256
▁hat	-10.0259
▁etmeniz	-10.0263
haber	-10.0264
▁bekleniyor	-10.0267
▁Anne	-10.0272
▁Onlar	-10.0275
▁y	-10.0275
▁Ülke	-10.0277
yacak	-10.0278
▁eser	-10.028
▁Gu	-10.0281
▁Hu	-10.0284
▁dili	-10.0291
▁Or	-10.0293
▁Eskişehir	-10.0293
▁sıvı	-10.0301
▁platform	-10.0302
▁ölü	-10.0303
▁deneyimi	-10.0307
▁düz	-10.0315
ecektir	-10.0315
▁beklenen	-10.0318
layacak	-10.0326
▁türü	-10.0327
▁İn	-10.0327
sk	-10.0331
▁Ja	-10.0332
▁Geçen	-10.0333
▁bakan	-10.0338
uş	-10.034
▁Anayasa	-10.034
▁çekiyor	-10.0353
▁toplumun	-10.0357
AR	-10.036
▁kitle	-10.0363
ımı	-10.0366
▁olası	-10.0367
99	-10.0367
▁özellikler	-10.0369
▁çıkart	-10.0372
▁İkili	-10.0373
▁tartışma	-10.0373
▁Yönetimi	-10.0374
▁şifre	-10.0374
▁bırak	-10.0375
28	-10.0376
Me	-10.0376
▁haberler	-10.0376
▁kayıp	-10.0379
▁birbirine	-10.038
mis	-10.038
▁özen	-10.0381
▁gönder	-10.0381
▁biliyor	-10.0382
▁konularda	-10.0384
▁olduğunda	-10.0396
▁yapması	-10.0398
▁Go	-10.04
lim	-10.0403
▁çıkması	-10.0406
▁Emre	-10.0411
▁aykırı	-10.0414
▁geçici	-10.0418
başı	-10.0422
▁ba	-10.0422
▁dedim	-10.0425
▁seçenekler	-10.0428
▁umut	-10.0436
▁DE	-10.0438
▁alanlar	-10.0448
▁çiçek	-10.0456
▁yarım	-10.0459
▁yazık	-10.0461
▁sokak	-10.0464
▁Samsung	-10.0465
▁eğlenceli	-10.0466
ia	-10.0467
▁bileti	-10.0468
▁arkadaşı	-10.0469
▁kızı	-10.0475
▁sunduğu	-10.0484
▁şiddet	-10.0486
▁futbolcu	-10.0487
▁saatlerinde	-10.0492
[	-10.0494
▁vatandaşların	-10.0496
▁Peygamber	-10.0497
▁tarihli	-10.0499
▁Bölgesi	-10.0508
▁Manisa	-10.0509
Ka	-10.0513
▁ar	-10.0517
▁çocukları	-10.0522
▁kullanıcılar	-10.0525
nuz	-10.0525
▁iletişime	-10.0535
▁Zaten	-10.0536
▁şeyin	-10.0544
ilecek	-10.0547
ledi	-10.0548
▁heyecan	-10.0552
▁değerlendir	-10.0555
▁sebeple	-10.0556
cik	-10.0556
▁beyin	-10.0558
▁ederiz	-10.0563
-1	-10.0564
madan	-10.057
▁noktasında	-10.0572
▁yolda	-10.0574
▁Tıp	-10.0579
▁Ordu	-10.0587
▁Hak	-10.0588
▁Gece	-10.0589
▁altını	-10.0592
▁Karşı	-10.0598
▁şarkı	-10.0601
▁temin	-10.0604
▁bireysel	-10.0605
75	-10.0609
▁Hukuk	-10.0615
▁Merhaba	-10.0616
27	-10.0618
▁kilometre	-10.0623
▁uygulamalar	-10.0624
▁Kent	-10.0624
▁hattı	-10.0628
▁eğlence	-10.0629
▁isteği	-10.0629
▁örgütü	-10.0633
▁Savaş	-10.0637
▁Ol	-10.0637
name	-10.0637
▁hikaye	-10.0638
▁ufak	-10.0639
ucu	-10.064
▁sürece	-10.0641
üyor	-10.0648
▁birden	-10.0656
▁kuş	-10.0656
ER	-10.0657
▁edeceğiz	-10.0661
▁olayı	-10.0663
▁Bölümü	-10.0664
▁uyar	-10.067
▁harcama	-10.0672
▁bazıları	-10.0678
▁Madde	-10.0682
▁halkı	-10.0687
bel	-10.0692
▁ettim	-10.0696
RE	-10.0696
ll	-10.07
larımıza	-10.0703
▁hayatta	-10.0704
▁yapabilir	-10.0705
▁2007	-10.0707
▁alabilir	-10.0708
ıldığı	-10.0708
sta	-10.0711
▁etkinlik	-10.0713
tra	-10.0713
▁arıza	-10.0713
▁aralarında	-10.0715
02	-10.0716
▁anı	-10.0719
leyerek	-10.0728
▁huzur	-10.073
IR	-10.0732
▁Fiyat	-10.0733
▁Hakan	-10.0734
▁gerçekleşen	-10.0752
▁yetki	-10.0756
abilmek	-10.0764
tiği	-10.0764
▁kutu	-10.0764
▁üstüne	-10.0765
▁çekim	-10.0765
▁lideri	-10.0767
▁günden	-10.0767
▁Abdullah	-10.0775
▁Bebek	-10.0776
▁gurur	-10.0777
▁güncelleme	-10.0778
▁kapat	-10.078
▁Üç	-10.078
▁so	-10.078
aç	-10.0781
▁üstü	-10.0781
unda	-10.0785
▁ulaşmak	-10.0785
03	-10.0789
lılar	-10.0789
▁Resmi	-10.079
▁varlık	-10.079
▁Geri	-10.0792
▁uyku	-10.0792
▁sağlanması	-10.0794
▁bar	-10.0796
▁yönde	-10.0797
▁piyasasında	-10.0798
▁Du	-10.0799
07	-10.0799
layıp	-10.08
val	-10.0802
▁geçer	-10.0803
▁Borsa	-10.0803
▁Kişisel	-10.0807
|	-10.0817
▁yaptık	-10.0817
bur	-10.0821
▁bil	-10.0823
▁edici	-10.0824
▁kumaş	-10.0828
ron	-10.0831
▁pozisyon	-10.0831
▁Farklı	-10.0834
lâ	-10.0841
▁Kadınlar	-10.0845
ans	-10.0845
▁bilir	-10.0845
04	-10.0849
▁saniye	-10.0852
▁değiştirme	-10.0852
▁yerlerde	-10.0858
▁sakin	-10.0858
▁ettik	-10.0872
▁taşı	-10.0872
▁geleceği	-10.0874
▁yağmur	-10.0876
▁yatır	-10.0879
▁yaptığımız	-10.0883
▁depo	-10.0887
▁iyice	-10.0888
▁blog	-10.0891
▁ürünlerin	-10.0893
▁birliği	-10.0915
▁etmeyi	-10.0915
▁geldiğini	-10.0917
▁Ücretsiz	-10.0918
▁yağı	-10.0918
▁Üye	-10.0919
▁Seçim	-10.0921
▁kes	-10.0922
▁TBMM	-10.0924
▁kurma	-10.0925
▁150	-10.0928
▁link	-10.0931
▁gösterme	-10.0933
ladığı	-10.0937
▁maddesi	-10.0938
▁İşleri	-10.094
lidir	-10.0941
cilik	-10.0942
▁artır	-10.0944
▁mekan	-10.0945
▁bırakma	-10.0954
▁Kız	-10.0954
▁duyurdu	-10.0957
▁Bunların	-10.0959
▁bilgisi	-10.0963
▁kadının	-10.0964
leştirme	-10.0968
▁Kim	-10.0973
▁karşılaşma	-10.0978
▁sıfır	-10.0978
▁günün	-10.0982
▁idare	-10.0983
▁geliştir	-10.0983
▁ç	-10.0984
▁mutluluk	-10.0986
KA	-10.0987
▁hapis	-10.0993
▁İÇİN	-10.0993
▁hazırlık	-10.0995
▁Hiç	-10.0996
▁açtı	-10.0997
▁şiir	-10.0997
▁derecede	-10.0998
09	-10.1002
▁mesele	-10.1003
▁şans	-10.1004
▁giy	-10.1018
▁alakalı	-10.1018
Ma	-10.1024
ova	-10.1029
▁öğrenmek	-10.103
▁gelişim	-10.1034
▁alınarak	-10.1035
08	-10.1037
▁kodu	-10.1039
▁sanatçı	-10.1043
uk	-10.1044
cılar	-10.1046
▁Ke	-10.1053
▁başlangıç	-10.1053
ku	-10.106
▁düğün	-10.1061
31	-10.1064
▁klasik	-10.1065
▁üstünde	-10.1067
▁no	-10.1071
▁başlat	-10.1071
▁Erkek	-10.1072
▁güne	-10.1075
▁davranış	-10.1083
▁esnaf	-10.1086
▁paylaşım	-10.1087
▁Barış	-10.1088
ps	-10.1089
▁Yol	-10.109
leriniz	-10.1092
▁Har	-10.1092
▁yarat	-10.11
▁evet	-10.1101
▁Ardından	-10.1102
▁firmamız	-10.1103
▁gezi	-10.1105
Ya	-10.1109
▁emek	-10.1111
▁saf	-10.1113
▁genelde	-10.1113
▁deri	-10.1114
▁elinde	-10.1118
▁şube	-10.1121
▁dakikada	-10.1122
▁Fransız	-10.1129
▁kullanabilir	-10.113
▁gayet	-10.1131
▁Tabii	-10.1132
kları	-10.1136
▁anlamı	-10.1138
dığımız	-10.1139
abileceği	-10.1139
▁zamanında	-10.1144
▁hizmetler	-10.1148
▁şehrin	-10.1162
üp	-10.1163
▁altyapı	-10.1164
▁yoktu	-10.1167
▁yukarı	-10.1168
▁tablo	-10.1171
▁l	-10.1171
meli	-10.1179
▁şartları	-10.1182
larınız	-10.1184
Sen	-10.1184
▁köşe	-10.1184
▁bisiklet	-10.1186
▁alınır	-10.1188
▁rüya	-10.1193
▁düzey	-10.1195
müz	-10.1198
▁Kurul	-10.1199
LIK	-10.1199
▁mavi	-10.12
▁yaralı	-10.1201
▁sanki	-10.1203
▁sesi	-10.1203
NE	-10.1207
rat	-10.1207
▁II	-10.1209
▁nelerdir	-10.1211
▁denge	-10.1213
▁Birleşik	-10.1214
▁olmasa	-10.1219
bay	-10.1225
▁maçında	-10.1225
▁piyasaya	-10.1225
▁Başvuru	-10.1229
▁testi	-10.1231
▁gelmektedir	-10.1232
▁katıldığı	-10.1235
lanabilir	-10.1237
▁kaldığı	-10.124
▁yıllardır	-10.124
▁Lisesi	-10.1242
▁sorular	-10.1243
acağını	-10.1243
▁harekete	-10.1243
▁kalitesi	-10.1249
▁vermesi	-10.125
▁verilir	-10.1253
▁Ce	-10.1254
▁anahtar	-10.1256
lerdeki	-10.1263
▁yatırımcı	-10.1264
▁Not	-10.1264
▁Kore	-10.1265
▁yolculuk	-10.1265
▁eleştiri	-10.1266
▁ettir	-10.1268
▁tarafı	-10.1276
▁mali	-10.1283
▁verileri	-10.1284
▁arzu	-10.1285
iliyor	-10.1285
▁talebi	-10.1286
▁Program	-10.1288
▁Tasarım	-10.1293
▁atık	-10.1305
▁odası	-10.1309
▁üzeri	-10.1309
her	-10.1313
▁görüyoruz	-10.1315
▁yapmayı	-10.1317
▁metin	-10.1322
▁kendinizi	-10.1325
ts	-10.1327
şa	-10.1328
ara	-10.133
▁taze	-10.1332
▁kiralama	-10.1335
▁boyutu	-10.1335
▁oyunlar	-10.1336
▁yön	-10.1338
▁yönetici	-10.1338
▁firmalar	-10.1341
En	-10.135
▁Tabi	-10.135
şi	-10.1352
▁maaş	-10.1355
▁getirdiği	-10.1357
DAN	-10.1364
▁metal	-10.1364
▁söylemek	-10.1365
▁istifa	-10.1368
▁Yusuf	-10.1368
▁çalışmaya	-10.1369
hu	-10.1375
▁göstermektedir	-10.1375
▁azından	-10.1382
kaya	-10.1384
▁uygulanan	-10.139
▁ülkeler	-10.1392
ınızı	-10.1394
▁(1)	-10.1395
▁Oda	-10.1398
▁Din	-10.1403
-2	-10.1405
▁2000	-10.1405
▁tarif	-10.1406
▁yapıyoruz	-10.1409
Ne	-10.142
▁önemi	-10.1424
kat	-10.1425
▁koy	-10.1428
▁Günümüzde	-10.1429
▁Jo	-10.143
ılmıştır	-10.143
▁yedi	-10.1433
abilen	-10.1433
▁Erzurum	-10.1434
▁pozitif	-10.144
▁gösterdiği	-10.1445
▁kaydı	-10.1448
▁Ter	-10.1453
▁On	-10.1453
▁dağıt	-10.1455
▁Bölüm	-10.1456
▁Ber	-10.1456
▁öğren	-10.1459
▁yapıp	-10.1462
▁çıktığı	-10.1462
▁bildirdi	-10.1463
▁kuralları	-10.1463
imizin	-10.1469
▁sürü	-10.147
▁Gıda	-10.1472
▁açılış	-10.1473
masına	-10.1476
▁ekmek	-10.1481
▁grafik	-10.1487
▁oranda	-10.1491
▁gerekse	-10.1494
▁gidip	-10.1498
veya	-10.1498
▁co	-10.1498
▁gördü	-10.1499
▁Banka	-10.1502
▁Ho	-10.1504
▁Basın	-10.1506
▁ettikleri	-10.1511
▁Adam	-10.1515
▁av	-10.1523
34	-10.1529
▁it	-10.1531
23	-10.1533
▁bağış	-10.1533
▁Savunma	-10.1543
▁Federasyonu	-10.1545
▁Günlük	-10.1549
▁etmiştir	-10.1551
▁çözümü	-10.1553
▁yazma	-10.1556
▁Şehit	-10.1556
▁tehlike	-10.1564
▁bulunma	-10.1564
29	-10.1567
▁yanına	-10.1568
▁sürüyor	-10.1569
▁dev	-10.157
isi	-10.157
▁oran	-10.1571
nci	-10.1575
▁Yan	-10.158
▁birer	-10.158
▁toplantısı	-10.1583
▁Öğrenci	-10.1584
▁şart	-10.1597
▁ver	-10.1598
▁Pe	-10.1601
▁kurumlar	-10.1603
▁adalet	-10.1603
▁süper	-10.1607
▁Kayıt	-10.161
▁ayda	-10.1616
tım	-10.1617
▁maçta	-10.1628
TI	-10.163
▁stres	-10.1634
▁nakliye	-10.1634
▁Komisyonu	-10.1638
▁görevli	-10.1639
süz	-10.1642
▁Roma	-10.1643
▁gelişmeler	-10.1649
▁ha	-10.1654
▁Lu	-10.1656
▁cümle	-10.1659
▁ettiğiniz	-10.166
▁siyaset	-10.167
pi	-10.1675
▁kimyasal	-10.1676
▁ulaştı	-10.1678
▁kağıt	-10.1679
▁saatleri	-10.1687
▁satışı	-10.1689
imizi	-10.1692
▁Hemen	-10.1694
▁sınırları	-10.1699
▁içerir	-10.1702
▁büyü	-10.1704
▁Dolar	-10.1706
▁Gazi	-10.1707
▁satışa	-10.171
▁öğrencileri	-10.1715
▁Hotel	-10.1716
▁olmanız	-10.1725
▁gitme	-10.1728
▁kilit	-10.173
▁konuş	-10.173
▁falan	-10.1731
▁başladığı	-10.1739
▁bomba	-10.174
▁hayır	-10.1741
▁BU	-10.1745
▁fe	-10.1746
yer	-10.175
dığınız	-10.1751
▁kurmak	-10.1756
▁olabilecek	-10.1759
ince	-10.1759
yin	-10.176
▁kalmış	-10.176
▁geçiyor	-10.1763
▁şekli	-10.1764
▁adamı	-10.1779
▁Baba	-10.1779
larındaki	-10.1781
▁St	-10.1782
▁7.	-10.1783
▁maalesef	-10.1785
meyi	-10.1786
▁haklı	-10.1789
▁34	-10.179
▁Adı	-10.1798
diğiniz	-10.18
▁kapsamlı	-10.1801
eceğiz	-10.1801
▁Doç	-10.1802
▁Adalet	-10.1803
▁Diş	-10.1805
▁koşulları	-10.1812
▁Caddesi	-10.1824
▁pahalı	-10.1827
▁Havalimanı	-10.1831
▁başlıklı	-10.1832
▁değildi	-10.1832
▁emniyet	-10.1836
▁bilen	-10.1838
▁sorgu	-10.184
▁organizasyon	-10.1841
▁tanıma	-10.1841
▁annesi	-10.1842
mayın	-10.1843
▁gördüğü	-10.1846
landığı	-10.185
▁beyan	-10.1851
gun	-10.1862
▁fiyatlar	-10.1866
▁gram	-10.187
▁dönüştür	-10.1874
leyici	-10.1879
LAN	-10.1881
İK	-10.1883
Q	-10.1884
▁bul	-10.1894
▁Geçtiğimiz	-10.1903
▁kavga	-10.1904
▁karşımıza	-10.1906
ris	-10.1908
ktedir	-10.191
▁Ed	-10.1911
Her	-10.1916
▁şarj	-10.1917
gel	-10.1919
▁ihtiyacınız	-10.192
▁Belki	-10.1921
▁yeme	-10.1923
ab	-10.1925
▁Sonuç	-10.1926
aş	-10.193
don	-10.1933
▁yay	-10.1935
▁dikkatli	-10.194
▁yaşamak	-10.1941
▁Uğur	-10.1942
▁Azerbaycan	-10.1944
▁he	-10.1949
▁özellik	-10.195
mdan	-10.1959
kin	-10.1959
▁tiyatro	-10.1964
▁33	-10.1964
▁vatandaşlarımız	-10.1966
▁Toplam	-10.1967
▁selam	-10.1969
▁teşekkürler	-10.1969
UR	-10.1975
▁şirketler	-10.1979
▁rakip	-10.198
▁tablet	-10.1981
▁kod	-10.1984
▁sunucu	-10.1988
eceğini	-10.1991
▁saati	-10.1991
▁Hasta	-10.1993
▁Ad	-10.1996
▁konser	-10.1998
▁Gök	-10.1999
▁kalır	-10.2
tık	-10.2
▁çevrimiçi	-10.2001
▁odaları	-10.2004
▁duyma	-10.2008
▁döndü	-10.2009
▁farkında	-10.2015
▁Zira	-10.2016
▁sürpriz	-10.2017
▁fon	-10.2017
▁Yakın	-10.2018
▁Paris	-10.2021
▁çocuğu	-10.2022
▁Fiyatları	-10.2024
▁yaklaşım	-10.2024
55	-10.2025
▁Per	-10.2028
irken	-10.2028
▁market	-10.2028
▁Muğla	-10.2029
▁açıldı	-10.2029
▁evinde	-10.2032
33	-10.2033
kur	-10.2035
land	-10.2037
▁ila	-10.2039
▁kontrolü	-10.2039
▁lezzet	-10.2039
Türk	-10.2039
▁olaylar	-10.2043
▁sözleri	-10.2043
▁Mücadele	-10.2043
▁Sal	-10.2044
▁gönül	-10.2048
Kİ	-10.2048
yol	-10.2049
▁milletvekili	-10.205
▁36	-10.2051
▁ser	-10.2058
▁Jandarma	-10.2058
▁moda	-10.2059
İş	-10.2061
▁meclis	-10.2064
▁isteme	-10.2064
▁dayan	-10.2064
▁Tur	-10.2069
▁üretilen	-10.207
▁gelme	-10.2071
▁Aşk	-10.2072
ticaret	-10.2073
▁Bin	-10.2075
ite	-10.2076
▁rahatlıkla	-10.2078
▁Hindistan	-10.2078
▁halen	-10.2081
kte	-10.2082
▁İlgili	-10.2084
▁DA	-10.2085
▁hedefi	-10.2085
95	-10.2088
▁krizi	-10.209
▁Foreks	-10.2091
▁aşkın	-10.2092
#	-10.2093
eği	-10.2094
▁gözü	-10.2095
lıdır	-10.2102
▁Kaç	-10.2104
▁olunca	-10.2106
▁Sabah	-10.2112
▁forma	-10.2116
▁tasarruf	-10.2119
▁mesajı	-10.2119
▁Bayan	-10.2119
▁kamp	-10.2122
▁Blog	-10.2127
Se	-10.2128
mekte	-10.213
▁Dış	-10.2131
▁yardımı	-10.2131
▁un	-10.2136
$	-10.214
▁yapılmaktadır	-10.2141
duk	-10.2143
▁görüşü	-10.2144
▁restoran	-10.2144
▁Bilgisayar	-10.2147
▁Sağ	-10.2147
▁sağlama	-10.2148
▁getirme	-10.2149
▁Servis	-10.2152
▁sendika	-10.2158
▁isteyenler	-10.2168
▁pandemi	-10.217
▁ürünün	-10.2171
▁beden	-10.2173
ham	-10.2173
▁tüketici	-10.2177
▁ondan	-10.2177
Dİ	-10.218
▁yüzey	-10.218
▁yüzlerce	-10.2181
▁evden	-10.2182
▁teklifi	-10.2191
ebilmek	-10.2193
▁düzenlediği	-10.2193
▁görüyor	-10.2195
▁Bağ	-10.2199
▁sağlamaktadır	-10.22
▁yürüyüş	-10.2201
▁acaba	-10.2201
▁arasından	-10.2207
▁Kaynak	-10.2215
▁has	-10.2215
▁Üstelik	-10.2219
▁Ci	-10.2226
▁kay	-10.2228
ard	-10.2228
▁York	-10.2234
▁Ünlü	-10.2236
▁yukarıda	-10.2237
lerindeki	-10.2238
▁okur	-10.2242
▁Metin	-10.2253
▁yönlü	-10.2254
▁koltuk	-10.2266
▁seviye	-10.2271
▁tanıtım	-10.2274
▁etkileri	-10.2281
▁bildirim	-10.2282
▁etkinliği	-10.2285
▁ter	-10.2286
▁Eş	-10.2293
ting	-10.2295
che	-10.2296
▁zeka	-10.2298
▁enflasyon	-10.2298
▁açıklandı	-10.23
▁İnce	-10.2306
▁toz	-10.231
▁Ga	-10.2313
▁yüzü	-10.2314
▁Tanrı	-10.2318
▁ülkelerin	-10.2321
bat	-10.2322
▁kimsenin	-10.2325
▁olmaları	-10.2326
▁yaptım	-10.2332
▁iddaa	-10.2338
▁yılının	-10.2338
mon	-10.234
▁Ders	-10.2341
ali	-10.2341
▁bilgilere	-10.2342
▁faydalan	-10.2343
▁dolarlık	-10.2345
▁sisteminin	-10.2347
▁kalıyor	-10.2349
▁Köyü	-10.2351
par	-10.2352
▁Oku	-10.2357
▁Microsoft	-10.2358
▁bizlere	-10.2366
TL	-10.2369
meyen	-10.2379
▁kaybeden	-10.2383
▁1000	-10.2383
kta	-10.2386
▁detayları	-10.2386
▁400	-10.2387
▁sektörü	-10.2395
▁gül	-10.2397
▁İnşaat	-10.2398
▁prim	-10.2398
İL	-10.2398
ste	-10.2401
duğu	-10.2401
har	-10.2402
▁veriler	-10.2403
ac	-10.2405
▁hacmi	-10.2408
▁oluşur	-10.2409
▁imkan	-10.2415
▁kalem	-10.2419
▁ip	-10.2423
SE	-10.2426
▁kardeşi	-10.2429
▁yorumları	-10.2431
▁deney	-10.2432
lt	-10.2444
▁kısım	-10.245
NA	-10.2452
▁çatışma	-10.2454
İR	-10.2455
▁korunması	-10.2457
sizlik	-10.2465
▁durumun	-10.2468
▁ata	-10.2468
Ge	-10.2475
▁listesi	-10.2475
▁açıklamalarda	-10.2476
▁bitir	-10.2478
▁kişiyi	-10.2479
▁Fotoğraf	-10.2479
▁Za	-10.2484
▁doku	-10.2485
esi	-10.2485
▁pa	-10.2486
▁dost	-10.2488
▁arkadaşlık	-10.2488
tma	-10.2494
ep	-10.2497
▁Mal	-10.2498
▁Öyle	-10.25
▁uyuşturucu	-10.2508
▁alırken	-10.2508
laş	-10.2508
▁payı	-10.2511
▁oturma	-10.2513
▁oluşturan	-10.2514
▁özgürlük	-10.2515
larım	-10.2516
▁hücre	-10.2518
▁getiriyor	-10.2522
rma	-10.2524
▁Uzman	-10.2525
hal	-10.2526
of	-10.2526
▁gelince	-10.2528
▁olmanın	-10.2531
▁ö	-10.2531
▁işgal	-10.2532
▁Araç	-10.2533
▁çeşitleri	-10.2533
▁Wi	-10.2535
▁mutfak	-10.254
▁Kas	-10.2541
▁Sivas	-10.2541
▁Oysa	-10.2542
▁avantaj	-10.2545
tt	-10.2548
▁halı	-10.2548
LU	-10.2549
set	-10.2549
▁sahte	-10.2549
▁besin	-10.2552
▁Bas	-10.2555
▁tehlikeli	-10.2561
▁komşu	-10.2565
▁oynamak	-10.2567
▁radyo	-10.2571
▁65	-10.2572
▁Sistem	-10.2573
▁Takım	-10.2577
▁Fe	-10.2577
▁Hafta	-10.2577
▁oldum	-10.2579
▁hakem	-10.2582
rit	-10.2582
▁topu	-10.2583
▁bilgilendirme	-10.2586
▁Digiturk	-10.2587
lamış	-10.2592
▁dönemlerde	-10.2594
▁protesto	-10.2594
▁kahvaltı	-10.2595
▁Bel	-10.2597
emez	-10.26
▁konular	-10.26
▁Konseyi	-10.2601
▁programları	-10.2602
▁değişiklikler	-10.2605
▁art	-10.2607
▁aş	-10.2612
▁raporu	-10.2613
▁örneği	-10.2616
▁üstün	-10.2623
65	-10.2626
▁kazı	-10.2633
▁iklim	-10.2635
▁parmak	-10.2637
lenebilir	-10.2641
ers	-10.2641
liğine	-10.2641
▁süreli	-10.2645
▁kaçak	-10.2646
Re	-10.2649
▁r	-10.2652
▁aşamasında	-10.2653
▁vazgeç	-10.2654
▁Festivali	-10.2659
▁eriş	-10.2663
▁sanırım	-10.2667
▁yaşıyor	-10.267
▁izni	-10.2674
zan	-10.2674
▁48	-10.2675
▁olduk	-10.2676
ven	-10.2682
▁gözden	-10.269
▁sıcaklık	-10.2693
▁Yerel	-10.2693
▁vize	-10.2698
▁Ti	-10.2698
▁kurtar	-10.2708
▁anti	-10.2708
▁Marmara	-10.271
mik	-10.2711
▁devreye	-10.2711
▁adımı	-10.2714
yar	-10.2715
36	-10.2717
▁Dikkat	-10.2718
CA	-10.2723
çu	-10.2723
▁55	-10.2734
▁aylarında	-10.2734
▁oyuncular	-10.2735
▁hassas	-10.2736
▁tık	-10.2736
▁ağı	-10.2737
▁Marka	-10.2738
▁şüphe	-10.2741
▁takdir	-10.2747
▁şansı	-10.2747
37	-10.2749
▁hayatın	-10.2751
▁girme	-10.2752
▁temsilcileri	-10.2753
▁şehri	-10.2755
▁öğrenildi	-10.2757
▁Dijital	-10.2759
▁zamanlar	-10.2763
▁geride	-10.2767
▁tuz	-10.2771
AY	-10.2772
▁HD	-10.2774
▁kişilere	-10.2775
▁yat	-10.2776
▁günleri	-10.2779
▁piyasada	-10.2781
▁maliyeti	-10.2783
les	-10.2787
▁paketi	-10.2789
lin	-10.2793
top	-10.2793
▁emir	-10.2793
▁stratejisi	-10.2794
▁medyada	-10.2799
▁sap	-10.28
RA	-10.2802
▁çıkmış	-10.2802
▁hızı	-10.2802
AM	-10.2804
▁gazeteci	-10.2804
▁senedi	-10.2806
mın	-10.2807
▁sürücü	-10.2812
tör	-10.2813
til	-10.2814
▁Elektrik	-10.2819
@	-10.2821
▁hukuki	-10.2821
layıcı	-10.2829
▁yarışma	-10.283
▁açmak	-10.2831
▁örneğin	-10.2832
▁bakın	-10.2834
▁olmaktan	-10.2837
▁Rum	-10.2838
▁egzersiz	-10.2839
▁250	-10.284
ation	-10.284
▁geldiğinde	-10.2841
▁sorunun	-10.2842
▁göç	-10.2844
▁Selçuk	-10.285
▁emri	-10.2851
▁gerçeği	-10.2854
ebiliyor	-10.2855
▁psikolojik	-10.2856
▁taraftan	-10.2856
▁edilerek	-10.2856
▁Soru	-10.2858
▁elbise	-10.2858
▁(19	-10.2859
▁Bayram	-10.2861
▁piyasası	-10.2866
ft	-10.2868
▁Ajansı	-10.2871
▁yıla	-10.2871
▁yazdı	-10.2872
▁satım	-10.2875
▁Tan	-10.2877
▁namaz	-10.2878
▁Müzik	-10.288
we	-10.2881
▁konferans	-10.2882
▁plana	-10.2887
abilmektedir	-10.2887
▁sak	-10.2889
ant	-10.2893
ydu	-10.2894
▁kaynaklı	-10.2898
▁çelik	-10.2899
▁AL	-10.2899
▁odaklı	-10.2899
CI	-10.2902
ja	-10.2902
▁yaşamını	-10.2904
▁Hızlı	-10.2905
▁koku	-10.2905
▁merkezinde	-10.2905
▁araçlar	-10.2908
▁firmaları	-10.291
▁vatandaş	-10.2911
rek	-10.2911
▁analizi	-10.2912
▁çözümler	-10.2913
▁cevabı	-10.2914
▁AR	-10.2914
▁Lisans	-10.2917
for	-10.292
iği	-10.2923
▁ağaç	-10.2923
▁Bak	-10.2924
▁Işık	-10.2925
▁slot	-10.2931
▁mail	-10.2933
▁Kır	-10.2934
▁tel	-10.2936
▁çalıştır	-10.2936
▁güzellik	-10.2936
▁banyo	-10.294
▁Yok	-10.2941
▁oluşturma	-10.2942
▁aracın	-10.2945
▁çalışmalarına	-10.2948
▁inanç	-10.2952
şe	-10.2952
res	-10.2953
▁Sol	-10.2955
▁kuvvet	-10.2955
▁Öğretim	-10.2957
▁tutmak	-10.2957
lari	-10.2958
▁maliyet	-10.2963
lanacak	-10.2966
▁Ser	-10.2968
▁anlamak	-10.2971
De	-10.2973
ET	-10.2976
▁hakkını	-10.298
-3	-10.298
▁siteler	-10.2982
▁İçişleri	-10.2982
▁vade	-10.2986
▁75	-10.2986
▁admin	-10.2987
▁uyu	-10.2992
▁Elazığ	-10.2999
GE	-10.2999
▁kulüp	-10.3001
▁kanalı	-10.3002
▁ailesi	-10.3003
▁çanta	-10.3004
▁Herkes	-10.3005
▁verilecek	-10.3006
▁almayı	-10.3008
▁meydan	-10.3008
▁davran	-10.3011
▁nakit	-10.3013
▁attığı	-10.3016
▁asit	-10.3017
▁çekmek	-10.3017
▁kardeş	-10.3026
▁Hatay	-10.3029
Cumhurbaşkanlığı	-10.3031
Son	-10.3034
▁geçme	-10.3036
▁or	-10.3037
▁Kullanıcı	-10.304
▁birlik	-10.3042
▁alınacak	-10.3043
▁olamaz	-10.3046
▁broker	-10.3047
▁çıkarma	-10.305
▁Forum	-10.3054
▁anket	-10.3054
▁Sar	-10.3056
lanmıştır	-10.3059
▁Bana	-10.306
▁varlığı	-10.3062
39	-10.3064
▁gelerek	-10.3065
▁ihlal	-10.3066
zer	-10.3066
▁açan	-10.3068
▁protein	-10.3068
▁kahraman	-10.3069
▁donanım	-10.3072
▁Kupası	-10.3073
nd	-10.3075
▁bakımı	-10.308
▁ettiler	-10.308
▁vefat	-10.3082
▁kritik	-10.3083
▁komisyon	-10.3085
▁bedeli	-10.3087
▁yapılabilir	-10.3093
▁Şen	-10.3099
▁kısmında	-10.3102
▁başar	-10.3104
▁seviyede	-10.3104
▁panel	-10.3105
ff	-10.3113
▁teknolojisi	-10.3113
▁kurban	-10.3115
▁denir	-10.3117
▁perde	-10.3122
▁idari	-10.3123
▁Sun	-10.3123
▁sağladığı	-10.3124
▁Edirne	-10.3127
OR	-10.3128
▁oynadığı	-10.3128
▁aksine	-10.3132
lerim	-10.3132
▁hanım	-10.3134
ıt	-10.3137
▁nüfus	-10.3139
IL	-10.3139
▁Yaklaşık	-10.3141
▁sor	-10.3141
▁Hoca	-10.3146
▁tarifi	-10.315
▁numaralı	-10.3151
▁tutarı	-10.3154
rken	-10.3156
▁konuyu	-10.3156
▁bedava	-10.3156
lenerek	-10.3156
AB	-10.3162
TO	-10.3162
▁performansı	-10.317
▁Gür	-10.3172
▁ters	-10.3175
▁paylaştı	-10.3175
▁Ödeme	-10.3176
ent	-10.3177
▁Yurt	-10.3179
▁maksimum	-10.318
44	-10.318
▁fi	-10.318
▁etkileşim	-10.3181
▁yerler	-10.3181
▁yakıt	-10.3185
▁biliyoruz	-10.3189
bra	-10.3191
▁Meslek	-10.3192
İT	-10.3194
▁hakaret	-10.3194
▁yapım	-10.3195
umuz	-10.3198
▁sesli	-10.3199
▁ilçesi	-10.3207
▁hitap	-10.3212
▁yazarı	-10.3214
▁tutma	-10.3219
▁NE	-10.3221
türk	-10.3222
▁problemi	-10.3227
▁Londra	-10.3234
/1	-10.3241
▁düşün	-10.3242
▁İnsanlar	-10.3242
▁Ju	-10.3243
▁ortasında	-10.3243
▁anlar	-10.3244
▁çalıştığı	-10.3247
▁unutmayın	-10.3247
laması	-10.3248
oloji	-10.3248
▁malzemeleri	-10.3251
▁set	-10.3252
▁For	-10.3253
▁açtığı	-10.3255
▁vatan	-10.3256
▁katılma	-10.3259
▁nakliyat	-10.326
▁sitenin	-10.3262
38	-10.3269
▁sayısının	-10.3269
▁Servisi	-10.3269
▁toplantısında	-10.3271
ınca	-10.3271
▁kapsamda	-10.3272
▁olduğum	-10.3278
iç	-10.328
▁ho	-10.3283
leyebilirsiniz	-10.3284
ği	-10.3288
▁gelmiştir	-10.329
▁Kış	-10.3291
om	-10.3291
abileceğiniz	-10.3292
▁Müdür	-10.3296
▁etkiler	-10.3298
▁taşıyor	-10.3301
Ta	-10.3304
▁Karar	-10.3308
46	-10.3309
MAN	-10.331
▁Covid	-10.3313
▁katkıda	-10.3315
▁çıkardı	-10.3316
▁değişimi	-10.3321
inize	-10.3322
49	-10.3324
▁dar	-10.3325
▁Tu	-10.3326
▁dışarı	-10.3329
▁bizimle	-10.3329
abı	-10.3329
▁konaklama	-10.333
▁bulunduğunu	-10.3331
▁ulaştır	-10.3333
▁plastik	-10.3333
▁sorunsuz	-10.3334
▁yaralandı	-10.3336
▁Önceki	-10.3337
▁seçin	-10.3338
Yeni	-10.3342
▁diyet	-10.3343
▁Mesaj	-10.3347
▁ihtimali	-10.3348
▁Yardım	-10.3352
▁İspanya	-10.3353
▁anlayışı	-10.3353
▁sizleri	-10.3354
▁kullanır	-10.3354
▁EN	-10.3357
▁Fer	-10.3358
▁bölgeye	-10.3358
▁roman	-10.336
▁MA	-10.3366
▁haftada	-10.3368
▁emeği	-10.3371
▁Arkadaş	-10.3372
▁manevi	-10.3376
▁mm	-10.3377
▁yükleme	-10.3377
▁kanıt	-10.3379
▁dergi	-10.338
▁ilişkiler	-10.3382
▁Çiçek	-10.3385
▁evi	-10.3385
▁soy	-10.3387
gül	-10.339
▁Em	-10.3392
▁dostu	-10.3397
▁doğu	-10.3397
▁türleri	-10.3402
▁zararlı	-10.3402
▁uğraş	-10.3407
▁suretiyle	-10.3408
▁ibadet	-10.3408
85	-10.3411
▁Balıkesir	-10.3412
▁yatırımcılar	-10.3412
▁blok	-10.3413
▁olmuştu	-10.3415
▁icin	-10.3418
▁belirleme	-10.3423
▁mağdur	-10.3424
▁dışına	-10.3426
▁abi	-10.3436
▁Çoğu	-10.3437
▁Doğal	-10.3439
▁ortada	-10.3441
▁şirketlerin	-10.3445
▁Galaxy	-10.3446
▁ekstra	-10.3447
▁tepe	-10.345
ili	-10.3451
▁istanbul	-10.3457
▁Çek	-10.3457
▁gönderme	-10.3459
▁Uçak	-10.3462
▁sorgulama	-10.3466
▁alana	-10.347
▁gördüm	-10.3474
▁davası	-10.3478
▁Yabancı	-10.3478
▁Cevap	-10.3479
dem	-10.3479
▁çalışıyoruz	-10.3483
▁ke	-10.3485
▁ilişkileri	-10.3491
▁ayır	-10.3491
dil	-10.3496
▁potansiyel	-10.3496
▁sil	-10.3497
▁özgür	-10.3499
▁şok	-10.3499
ral	-10.3499
▁eşliğinde	-10.3502
ân	-10.3503
▁harita	-10.3506
▁bekleyen	-10.3507
▁dünyasında	-10.3509
▁Ü	-10.3513
▁yumuşak	-10.3516
▁uzay	-10.3519
kent	-10.352
▁kaynakları	-10.3525
je	-10.3526
▁şunu	-10.3527
▁mobilya	-10.3527
▁çapında	-10.3528
ex	-10.3529
▁gerekirse	-10.3533
▁geliştirmek	-10.3536
mayan	-10.3537
▁dizisi	-10.3541
▁düzgün	-10.3542
sey	-10.3544
▁yazın	-10.3547
dağ	-10.355
▁işletim	-10.3552
▁yedek	-10.3555
▁açı	-10.356
▁atma	-10.3561
▁Hanım	-10.3572
▁dayanıklı	-10.3574
luğa	-10.358
▁seven	-10.3582
▁başarılar	-10.3583
▁hariç	-10.3583
▁İYİ	-10.3585
▁Sizin	-10.3585
▁rahmet	-10.3589
▁görür	-10.3589
▁hakkındaki	-10.3593
▁final	-10.3595
yarak	-10.3597
▁uzaktan	-10.36
▁kolaylıkla	-10.3601
▁Kay	-10.3602
lendiği	-10.3606
amayan	-10.3606
▁Ses	-10.3606
▁unutma	-10.3607
▁yaptığını	-10.3609
larınızın	-10.3618
▁arkasında	-10.3624
▁ağırlık	-10.3628
▁pil	-10.3629
▁düzeni	-10.3631
kullanılmaktadır	-10.3635
▁hesaplama	-10.3637
imize	-10.3638
▁pencere	-10.3639
▁aldık	-10.364
▁Önemli	-10.3641
▁yükseliş	-10.3642
▁kullanıcıları	-10.3643
▁kullanıyor	-10.3645
▁Uygun	-10.3645
▁başlama	-10.3646
▁Ziraat	-10.3646
▁değilim	-10.3647
bit	-10.3648
▁tarafında	-10.3654
yorum	-10.3659
▁Güven	-10.3664
▁direkt	-10.3664
▁kaplama	-10.3665
▁Mor	-10.3668
▁Japonya	-10.3668
landırma	-10.3669
▁depolama	-10.3673
▁rakam	-10.3679
▁dal	-10.3682
▁tebrik	-10.3682
▁görülür	-10.3684
▁işveren	-10.3684
ika	-10.3685
▁ilerleme	-10.3688
▁görünüm	-10.3691
▁artışı	-10.3694
▁chat	-10.3696
▁bekliyoruz	-10.3697
▁kut	-10.3697
▁içme	-10.3699
▁icra	-10.3703
▁tarihinden	-10.3705
▁derdi	-10.3705
▁gayret	-10.3718
▁Cem	-10.3718
▁Dün	-10.3718
▁değerleri	-10.3721
▁Üst	-10.3722
▁asgari	-10.3723
▁geçmek	-10.3723
▁Okulu	-10.3725
▁hesabınız	-10.3726
ğı	-10.3726
▁yetersiz	-10.373
▁bildirildi	-10.3733
ty	-10.3736
▁şeyleri	-10.3738
▁konuları	-10.3738
▁Birinci	-10.374
▁dinamik	-10.3741
▁Bavul	-10.3742
▁bildir	-10.3745
▁klima	-10.3745
47	-10.3745
lanarak	-10.3748
▁Görev	-10.3749
▁olmayacak	-10.3751
▁açıkça	-10.3752
▁kaşığı	-10.3754
dere	-10.376
ds	-10.3761
▁temizliği	-10.3767
▁bet	-10.3767
▁kongre	-10.3768
▁detaylar	-10.3768
medi	-10.377
bil	-10.3773
Allah	-10.3774
▁Home	-10.3777
100	-10.3778
▁düşünüyor	-10.378
▁giyim	-10.378
▁kopya	-10.3781
▁başlamış	-10.3791
▁soruları	-10.3791
▁eksikliği	-10.3794
..."	-10.3795
CE	-10.3801
▁öneri	-10.3802
▁anlatıyor	-10.3804
▁İşçi	-10.3806
▁yansıt	-10.3807
İstanbul	-10.3809
▁tutan	-10.381
▁gelişen	-10.3813
▁Mahkeme	-10.3814
▁kıl	-10.3814
▁tamamı	-10.3815
▁düşme	-10.3816
kara	-10.3817
▁altındaki	-10.3818
▁Hakları	-10.382
▁Kart	-10.3822
▁havuz	-10.3822
▁alanlarında	-10.3822
▁finans	-10.3823
▁Mesela	-10.3823
▁mah	-10.3827
bas	-10.3829
▁anlamlı	-10.383
▁faaliyetleri	-10.3831
▁doğan	-10.3831
▁konum	-10.3832
▁aşama	-10.3833
EK	-10.3835
▁Valisi	-10.3839
▁38	-10.384
▁etkinlikleri	-10.3842
▁başlığı	-10.3843
▁kemik	-10.3846
▁ağrısı	-10.3846
▁Siyah	-10.3846
▁tut	-10.3846
düğü	-10.3846
tel	-10.3846
▁cihazlar	-10.3852
**	-10.3853
▁!	-10.3857
af	-10.3857
▁Men	-10.3858
▁sitede	-10.3859
▁alanına	-10.3864
▁misiniz	-10.3866
mü	-10.3867
▁forum	-10.3869
ilerek	-10.387
UM	-10.3872
▁ayrıntılı	-10.3874
▁çatı	-10.3877
▁etmez	-10.3879
▁değişen	-10.3881
▁şa	-10.3883
▁adımlar	-10.3885
▁sistemini	-10.3887
▁Daire	-10.3888
▁Es	-10.3888
▁sitesinin	-10.3893
▁yerleri	-10.3894
▁minimum	-10.3896
▁poker	-10.3896
ez	-10.3898
▁hüküm	-10.3899
▁kullanmaya	-10.3902
lenecek	-10.3903
▁olayın	-10.3905
ılmaktadır	-10.3906
▁yazdığı	-10.3907
umu	-10.3913
▁gücünü	-10.3913
▁pas	-10.3915
para	-10.3917
▁Hollanda	-10.3919
▁kalbi	-10.3919
sidir	-10.392
▁Pek	-10.3922
▁tren	-10.3922
▁**	-10.3923
▁hayatında	-10.3923
▁Halil	-10.3927
▁HABER	-10.3927
▁bulur	-10.3928
▁mide	-10.3934
▁olmuyor	-10.3935
▁rast	-10.3939
▁dönemin	-10.3943
▁Kalite	-10.3943
▁gönüllü	-10.3943
▁yen	-10.3943
▁BM	-10.3946
▁üretici	-10.3947
▁yerleşim	-10.3948
▁Hal	-10.3951
▁Tel	-10.3951
▁Sokak	-10.3953
mus	-10.3958
çü	-10.3961
▁istenen	-10.3962
▁doz	-10.3965
▁Takımı	-10.3965
▁yükseldi	-10.3966
▁çıkarmak	-10.3967
▁yaptığınız	-10.3969
▁vi	-10.397
▁Con	-10.3971
▁koruyucu	-10.3973
▁gr	-10.3974
▁bit	-10.3977
▁hepimiz	-10.3977
▁2006	-10.3978
▁arasına	-10.3979
▁Der	-10.3983
▁Sigorta	-10.3989
▁çalıştı	-10.3991
▁Millet	-10.3991
zı	-10.3993
▁yapacağı	-10.3993
▁gidecek	-10.3995
zo	-10.3996
▁Elbette	-10.3997
▁Sevgili	-10.4009
▁dernek	-10.4013
sunu	-10.4013
bin	-10.4014
▁bizler	-10.4014
port	-10.4015
▁Reklam	-10.402
▁müze	-10.4022
▁öğrencilere	-10.4024
tme	-10.4024
▁diliyorum	-10.4024
AA	-10.4025
▁yetkilileri	-10.4025
yecek	-10.4026
▁Size	-10.4026
RT	-10.403
▁kullanılarak	-10.4031
▁sunmak	-10.4031
chi	-10.4037
▁maddeler	-10.4038
rin	-10.4039
▁yılları	-10.4039
▁satıcı	-10.4039
▁Akıllı	-10.4044
▁bilgilerini	-10.4044
▁yıkama	-10.4047
▁isimler	-10.4051
▁Orhan	-10.4058
▁İmam	-10.4059
▁lüks	-10.4065
▁Bazen	-10.4069
ng	-10.407
▁kampanyası	-10.4074
▁uzmanı	-10.4075
▁siteye	-10.4078
▁ülkeye	-10.4082
kça	-10.4083
▁kul	-10.4084
rı	-10.4088
▁markası	-10.4091
▁ortamı	-10.4092
BA	-10.4094
▁karşılaş	-10.4095
▁trend	-10.4099
▁sizlerle	-10.41
▁seviyesi	-10.41
▁Doğum	-10.41
▁köprü	-10.4101
▁kısmını	-10.4102
▁denk	-10.4102
▁Müzesi	-10.4105
▁Sev	-10.4105
▁kalmak	-10.4107
EM	-10.4111
▁Yavuz	-10.4112
ang	-10.4119
▁Doktor	-10.4122
▁Gezi	-10.4125
lığına	-10.4129
▁İslâm	-10.413
▁organize	-10.4134
▁adresimi	-10.4135
▁May	-10.4137
▁görülmektedir	-10.4143
▁zamanlı	-10.4143
▁iman	-10.4144
53	-10.4145
▁Ülkemizde	-10.4149
▁arkadaşım	-10.4152
▁kalabalık	-10.4154
yalım	-10.4156
▁fazlası	-10.4158
▁damar	-10.4159
kleri	-10.4161
▁Kontrol	-10.4164
art	-10.4164
▁sebze	-10.4167
▁kurtul	-10.4167
▁isterim	-10.4167
kon	-10.4167
Fi	-10.4167
▁borcu	-10.4169
▁Alt	-10.4171
▁Öztürk	-10.4172
▁Kategori	-10.4174
▁Oto	-10.4175
▁bakma	-10.4177
▁oluştur	-10.4177
▁Moda	-10.4182
laştırma	-10.4184
▁ağız	-10.4185
000	-10.4188
▁cihazı	-10.4194
▁demokratik	-10.4194
ana	-10.4194
▁orijinal	-10.4198
raf	-10.4201
▁Eğitimi	-10.4201
▁Sağlığı	-10.4201
▁karşın	-10.4208
▁oyna	-10.4211
▁ayakta	-10.4213
▁şeye	-10.4214
▁sahipliği	-10.4217
▁gerçekleşti	-10.4218
▁tat	-10.4219
▁eşlik	-10.4224
▁1-	-10.4225
▁getirir	-10.4226
▁derken	-10.4228
▁kayıtlı	-10.423
▁Ge	-10.4232
▁takımın	-10.4234
▁arttır	-10.4234
▁Bülent	-10.4236
▁kural	-10.4243
▁Ru	-10.4244
▁na	-10.4244
▁hayatına	-10.4246
▁bitcoin	-10.4246
▁haftalık	-10.4248
▁söyleme	-10.4249
▁Aç	-10.4253
▁olurken	-10.4256
▁bakalım	-10.4259
▁sev	-10.426
▁kimliği	-10.426
▁gereklidir	-10.4262
▁durumlar	-10.4263
▁vakti	-10.4266
42	-10.4267
▁bo	-10.4268
▁oynama	-10.4271
▁uygulamaya	-10.4272
▁demo	-10.4275
▁gerçekleştirdi	-10.4275
dal	-10.4285
mel	-10.4285
zen	-10.4288
▁sıklıkla	-10.4288
▁Toplum	-10.4291
▁8.	-10.4293
▁euro	-10.4294
▁getirilmesi	-10.4295
tro	-10.4307
▁rekor	-10.4308
▁sistemin	-10.4309
▁formu	-10.4309
▁yılına	-10.4309
▁Mavi	-10.431
▁teknolojik	-10.4311
▁meselesi	-10.4311
▁ülkelerde	-10.4312
▁par	-10.432
▁Koruma	-10.4325
▁tüketimi	-10.4328
▁boz	-10.4328
▁okumak	-10.4329
baba	-10.4329
▁inşallah	-10.433
lis	-10.4333
▁kendimi	-10.4333
sti	-10.4334
▁yeterince	-10.4336
▁karşılığında	-10.4339
manız	-10.434
mesini	-10.4347
▁artması	-10.4348
▁PC	-10.4349
▁karmaşık	-10.4354
▁Herhangi	-10.4356
▁vurgulayan	-10.4357
▁rezervasyon	-10.4364
▁kare	-10.4368
ÜN	-10.4371
▁Cam	-10.4377
dıklarını	-10.4377
▁stok	-10.4378
eğe	-10.438
▁terörist	-10.4381
öz	-10.4382
▁salonu	-10.4382
▁bilmiyorum	-10.4383
▁görevini	-10.4387
yip	-10.4389
▁yasağı	-10.4389
üz	-10.439
liyor	-10.439
▁inanılmaz	-10.439
▁hareketli	-10.4394
▁kalıp	-10.4394
▁olayları	-10.4395
▁kapasite	-10.4402
▁öldü	-10.4402
zu	-10.4403
▁Ağrı	-10.4404
▁kapak	-10.4408
▁Sınav	-10.4416
malısınız	-10.4418
▁lig	-10.4425
▁Kon	-10.4431
lerinize	-10.4437
▁Kapı	-10.4438
Tİ	-10.4439
▁göstermek	-10.4439
▁Hazır	-10.4441
▁dolara	-10.4445
od	-10.4446
▁sahil	-10.4452
▁dans	-10.4452
▁işlemlerini	-10.4452
lam	-10.4453
▁almıştır	-10.4453
tek	-10.4457
▁teminat	-10.4459
▁araştırmalar	-10.4459
▁seçme	-10.446
▁beğeni	-10.4462
▁erkekler	-10.4462
▁Kırmızı	-10.4464
▁Kişi	-10.4465
▁Kanal	-10.4472
▁tamamladı	-10.4473
▁olmasıdır	-10.4476
▁Örgütü	-10.4477
▁ettiğimiz	-10.4477
Al	-10.448
▁saatte	-10.4481
▁Alan	-10.4484
▁Doğa	-10.4486
▁ekledi	-10.4487
▁geçirmek	-10.4487
▁oto	-10.4488
▁kablo	-10.4494
▁vurguladı	-10.4497
▁Düzce	-10.4498
▁kurulması	-10.4499
▁geçirdi	-10.45
▁projeler	-10.45
▁eseri	-10.4501
▁randevu	-10.4505
▁tedbir	-10.4507
▁Acil	-10.451
▁Piyasa	-10.4515
▁düzenlendi	-10.4516
▁kaygı	-10.4519
▁günah	-10.4519
48	-10.4524
ılıp	-10.4524
▁yürütülen	-10.4524
▁promosyon	-10.4525
▁bunlara	-10.4529
▁olabileceği	-10.4529
▁bölgesi	-10.4532
▁abone	-10.4535
▁duygusal	-10.4536
▁tarayıcı	-10.4536
77	-10.4539
kol	-10.454
▁kaybetme	-10.4542
▁tarihine	-10.4543
▁Yüz	-10.4544
.30	-10.4545
▁Aziz	-10.4545
▁37	-10.4547
▁Kerim	-10.4547
▁Politikası	-10.4552
est	-10.4552
▁önlemek	-10.4556
▁uzat	-10.4556
üncü	-10.456
ct	-10.456
▁posta	-10.4562
▁Boz	-10.4565
tion	-10.4567
▁yararlı	-10.4567
▁hekim	-10.4568
leyin	-10.457
altı	-10.457
▁temsilcisi	-10.4572
▁Q	-10.4575
▁Kaza	-10.4577
wa	-10.4578
▁geçtiği	-10.4578
▁sitesine	-10.4579
▁şahıs	-10.4581
ted	-10.4583
▁Rize	-10.4584
▁Va	-10.4586
▁Renk	-10.4587
▁işlemci	-10.4589
▁patlama	-10.4589
▁özgü	-10.4593
▁ten	-10.4593
▁gününde	-10.4593
▁Uzmanı	-10.4594
»	-10.4596
ımızın	-10.46
▁kanseri	-10.46
▁ülkemizin	-10.4609
▁çocuklara	-10.4611
ion	-10.4614
▁oynanan	-10.4614
▁Satın	-10.4615
0.000	-10.4615
▁planlama	-10.4615
mur	-10.4615
layabilir	-10.4619
ire	-10.462
▁Örnek	-10.4621
fet	-10.4621
▁akademik	-10.4623
lenmiştir	-10.4625
▁milletin	-10.4628
▁konuya	-10.4628
▁öner	-10.4629
▁kalacak	-10.463
▁Hesap	-10.463
▁devir	-10.4631
▁arayan	-10.4632
▁sistemine	-10.4632
▁duruyor	-10.4633
▁girmek	-10.4633
▁çal	-10.4635
▁muhalefet	-10.4638
▁kategori	-10.4639
▁dışındaki	-10.4641
▁aşamada	-10.4644
lanmaktadır	-10.4644
▁olursunuz	-10.4645
▁edecektir	-10.4645
▁Enstitüsü	-10.4649
▁projeleri	-10.4652
▁karşılıklı	-10.4653
▁eşsiz	-10.4654
sat	-10.4654
▁vadede	-10.4659
▁yolunu	-10.4659
klarını	-10.466
▁yarısı	-10.4665
tif	-10.4667
▁bulunmak	-10.4667
▁Şeker	-10.4675
▁kurgu	-10.4676
▁Binomo	-10.4682
▁bekleme	-10.4683
▁yakalandı	-10.4684
▁Bonus	-10.4685
▁ordu	-10.4692
▁baz	-10.4699
▁rüzgar	-10.4701
▁Hastane	-10.4703
▁kendileri	-10.4707
88	-10.4707
▁Mardin	-10.4707
▁oyunun	-10.4708
▁girer	-10.4709
İZ	-10.4715
▁Yolu	-10.4716
▁Maç	-10.4716
▁doğur	-10.4721
▁Ekran	-10.4724
▁çöp	-10.4726
▁Özgür	-10.4727
mesine	-10.4729
▁Tem	-10.473
▁Mac	-10.4732
▁disiplin	-10.4738
▁geçirdiği	-10.4741
▁We	-10.4742
2014	-10.4743
▁tekne	-10.4744
▁Resim	-10.4748
▁mektup	-10.4751
▁personeli	-10.4751
▁milyonlarca	-10.4755
▁noktaları	-10.4756
▁hastaneye	-10.4758
İŞ	-10.4761
▁anlayış	-10.4762
▁Yunan	-10.4763
▁Kartal	-10.4766
▁kararlar	-10.4767
▁SE	-10.4773
▁paylaşmak	-10.4775
▁Par	-10.4779
▁seyirci	-10.4781
▁olmasının	-10.4782
▁Emin	-10.4782
▁Koronavirüs	-10.4783
▁limit	-10.4784
▁verilmektedir	-10.4784
▁kalması	-10.4785
▁USD	-10.4785
▁hareketi	-10.4786
▁fuar	-10.4786
▁firmaların	-10.4786
▁adıyla	-10.4788
▁girişim	-10.4788
▁uygulanması	-10.4793
–	-10.4794
ih	-10.4796
▁ortamında	-10.4796
log	-10.4804
▁biber	-10.4808
▁sektörde	-10.4813
▁uyan	-10.4814
▁politikası	-10.4819
io	-10.4819
▁ihmal	-10.4822
▁sırt	-10.4822
▁tüket	-10.4825
▁Ağır	-10.4827
▁sürdürülebilir	-10.483
▁sahipleri	-10.4832
-10	-10.4833
Kur	-10.4834
▁AN	-10.4834
▁arttı	-10.4839
▁verebilir	-10.4841
▁buluşma	-10.4841
41	-10.4842
ük	-10.4843
▁dediği	-10.4848
que	-10.4849
56	-10.4851
▁kuzey	-10.4854
▁gündem	-10.4856
diklerini	-10.4856
ebileceği	-10.4858
▁kitapları	-10.4859
EY	-10.4859
ig	-10.4861
▁Öğretmen	-10.4861
▁teşkil	-10.4864
64	-10.4864
▁amaçla	-10.4869
▁Dairesi	-10.487
abilmesi	-10.4871
▁bel	-10.4878
▁Dergisi	-10.488
▁Kal	-10.488
ılma	-10.488
amıyor	-10.4884
▁husus	-10.489
▁duyuru	-10.489
▁yardımıyla	-10.4891
▁öğrencisi	-10.4892
▁silahlı	-10.4898
yın	-10.4898
AS	-10.4898
▁anlamında	-10.49
▁yaşandı	-10.4901
▁gençler	-10.4903
▁istedim	-10.4905
▁ihraç	-10.4906
▁zorlu	-10.4907
43	-10.491
nik	-10.4912
▁seç	-10.4913
▁İŞ	-10.4913
▁Alanya	-10.4918
▁neticesinde	-10.492
▁çöz	-10.492
▁Karaman	-10.4922
▁merkezli	-10.4925
pan	-10.4927
▁haberine	-10.4928
oğu	-10.493
▁başlaması	-10.4931
▁kullanın	-10.4933
▁Ger	-10.4933
▁evin	-10.4935
▁musunuz	-10.4937
▁Kolay	-10.4937
▁Art	-10.4938
▁birimleri	-10.494
▁ahşap	-10.4941
▁sel	-10.4942
▁taksi	-10.4944
▁yatırımcıların	-10.4947
dığım	-10.4949
▁olacağız	-10.4952
▁yapacağınız	-10.4953
▁Evi	-10.4955
▁Hiçbir	-10.4956
▁gelebilir	-10.4956
▁ko	-10.4958
▁girişimi	-10.4963
ud	-10.4964
▁belir	-10.4964
▁buz	-10.4964
▁çabuk	-10.4964
▁ilişkisi	-10.4967
▁alkol	-10.4969
gü	-10.4974
▁savaşı	-10.4975
▁Bolu	-10.4978
tre	-10.498
lemek	-10.498
▁açılması	-10.4982
▁isyan	-10.4983
paşa	-10.4983
▁ulaşma	-10.4984
ebilen	-10.4984
▁koyu	-10.4984
▁ekleme	-10.4988
▁AY	-10.4988
larken	-10.4991
▁oynayan	-10.4993
▁kendisinin	-10.4993
ib	-10.4996
▁bilgilerin	-10.4996
▁42	-10.4999
▁aldığını	-10.5006
▁du	-10.5009
▁Suudi	-10.5014
▁39	-10.5015
▁600	-10.5015
▁Ham	-10.5021
leşen	-10.5024
▁maden	-10.5024
▁istedikleri	-10.5025
sızlık	-10.5025
▁bölümde	-10.5028
▁okundu	-10.5028
▁yorumu	-10.5028
▁muayene	-10.5029
▁Araba	-10.5033
▁İçerik	-10.5033
ğu	-10.5034
alı	-10.5034
lek	-10.5036
▁hizmete	-10.5036
▁Hayır	-10.5036
▁Kahramanmaraş	-10.5039
▁çiftçi	-10.504
▁kaydeden	-10.504
▁Sıra	-10.5044
▁olmakla	-10.5045
madı	-10.5047
▁kaldırılması	-10.5047
▁bıraktı	-10.5048
▁anayasa	-10.5048
▁NATO	-10.5049
▁biliyorum	-10.505
laştır	-10.505
zel	-10.5055
▁yapay	-10.5058
▁ihtiyaçlarını	-10.5058
▁Arslan	-10.5059
▁lezzetli	-10.5062
▁vitamini	-10.5062
▁ışığı	-10.5063
500	-10.5066
sar	-10.507
▁köpek	-10.5071
▁bilme	-10.5075
▁duyduğu	-10.5078
▁görülüyor	-10.5086
▁Ah	-10.5086
DER	-10.5088
▁Kazan	-10.5094
diğim	-10.5094
▁bizzat	-10.5095
lendir	-10.5095
▁senaryo	-10.5097
▁gittiği	-10.5097
▁pat	-10.5098
▁okuyucu	-10.5099
▁yapmaktadır	-10.5099
▁hastalıkları	-10.5099
54	-10.5101
Te	-10.5104
ücü	-10.5104
2)	-10.5107
▁diz	-10.5107
▁kutlama	-10.5111
▁kâr	-10.5112
gal	-10.5119
68	-10.5121
▁Aslan	-10.5122
▁yayınlandı	-10.5122
▁Ucuz	-10.5126
▁Gar	-10.5127
▁verdim	-10.5128
▁gerekçe	-10.5128
62	-10.513
▁dünyayı	-10.5133
▁akla	-10.5135
▁verin	-10.5136
▁fa	-10.5137
▁başa	-10.5138
▁ötürü	-10.514
▁azalt	-10.5143
likler	-10.5143
▁sessiz	-10.5148
▁Is	-10.5148
▁ham	-10.5149
▁tl	-10.5149
▁koyun	-10.5153
▁hükümeti	-10.5153
▁bilmek	-10.5159
HA	-10.516
▁suyun	-10.5162
▁yarattığı	-10.5165
▁daima	-10.5169
▁sözleşmesi	-10.517
▁120	-10.517
▁yazısı	-10.5172
▁İs	-10.5174
▁Kanada	-10.5176
▁yatırımı	-10.5177
gre	-10.5178
▁takipçi	-10.5184
▁Burak	-10.5186
▁aktivite	-10.519
▁zincir	-10.5193
▁pasta	-10.5194
▁salgın	-10.5194
▁kum	-10.5197
▁dokun	-10.5198
▁Kullan	-10.5205
▁Modern	-10.5205
▁çıkarak	-10.5207
▁bırakın	-10.5208
:10	-10.521
▁başkenti	-10.521
▁döner	-10.5211
▁istediğini	-10.5212
▁parçaları	-10.5212
▁Beş	-10.5214
▁9.	-10.5216
▁profil	-10.5218
▁diyorum	-10.522
▁vücudun	-10.522
▁yönel	-10.5221
▁Sınıf	-10.5232
86	-10.5234
▁hesabından	-10.5236
eti	-10.5237
▁göze	-10.5237
▁muhtemelen	-10.5243
▁getirildi	-10.5243
58	-10.5244
▁boyut	-10.5245
▁gidiş	-10.5246
▁kıyı	-10.5247
▁izlemek	-10.5247
▁serisi	-10.525
▁karşısına	-10.525
▁bizleri	-10.525
▁hangisi	-10.5255
bul	-10.5256
▁parlak	-10.5258
▁Siyaset	-10.5259
▁veriyoruz	-10.5259
▁oluşturduğu	-10.526
▁yönet	-10.526
▁çıkıp	-10.5261
▁parayı	-10.5262
▁çalışanları	-10.5264
▁zamanla	-10.5272
bank	-10.5273
▁2005	-10.5273
▁Kurum	-10.5275
▁Çift	-10.5276
▁olmazsa	-10.5278
cm	-10.5278
▁edilme	-10.5279
▁demiş	-10.5282
▁ikisi	-10.5283
59	-10.5283
▁onlarca	-10.5289
▁elektrikli	-10.529
▁keyfi	-10.5295
mal	-10.5296
▁düzenlenecek	-10.5297
▁planda	-10.5297
▁hissetme	-10.5298
▁Suriyeli	-10.5301
▁Köy	-10.5301
▁beraberinde	-10.5301
unuz	-10.5304
▁yapacağız	-10.5307
▁izleyici	-10.5308
▁Yu	-10.5314
▁isimleri	-10.5315
▁men	-10.5316
muyor	-10.5317
▁Star	-10.5321
▁kendinize	-10.5321
▁yöneticileri	-10.5321
bb	-10.5322
▁karşılığı	-10.5323
tay	-10.5332
▁Kadir	-10.5333
mayacak	-10.5334
▁Kuvvetleri	-10.534
▁geliştirilmesi	-10.5341
▁antrenman	-10.5342
▁tema	-10.5342
▁hissi	-10.5343
▁geriye	-10.5344
▁Net	-10.5348
▁atama	-10.5349
▁göçmen	-10.535
2013	-10.535
▁sürdü	-10.5353
lamaya	-10.5355
▁projenin	-10.5356
▁Ala	-10.5358
▁gördük	-10.5359
▁namazı	-10.5359
şan	-10.536
şehir	-10.5363
▁Vergi	-10.5364
▁HA	-10.5364
▁olağanüstü	-10.5365
▁olsaydı	-10.5369
▁evine	-10.5371
66	-10.5372
▁olurdu	-10.5372
▁şaşır	-10.5372
▁şartı	-10.5374
▁noktaya	-10.5375
▁merkezine	-10.5376
▁Hacı	-10.5384
▁denilen	-10.5384
▁paralel	-10.5387
▁uğra	-10.5387
▁Ateş	-10.5388
▁girdiği	-10.5388
▁Arka	-10.5389
▁Bahçeli	-10.5391
▁kurtarma	-10.5391
gın	-10.5392
▁Bit	-10.5392
▁Kullanım	-10.54
▁Kuş	-10.5402
▁onunla	-10.5403
▁Dizi	-10.5403
▁gelişimi	-10.5404
▁şair	-10.5404
▁Dağ	-10.5405
▁boru	-10.5409
▁filmin	-10.5415
▁Lütfen	-10.5417
▁don	-10.5418
▁söyler	-10.5422
▁getirilen	-10.5422
▁estetik	-10.5423
▁tören	-10.5426
▁açıklamasında	-10.5427
▁insana	-10.5428
▁Yalçın	-10.5429
▁birine	-10.543
▁Kripto	-10.543
▁gen	-10.5432
▁tutun	-10.5438
▁satan	-10.5439
ON	-10.544
▁oyuncusu	-10.5441
▁keyif	-10.5443
▁mücadelesi	-10.5443
▁oynan	-10.5446
▁inç	-10.5446
▁alacağı	-10.5447
lon	-10.5449
soy	-10.545
dy	-10.5454
Pa	-10.5456
▁ihtiyaçları	-10.5456
▁tıbbi	-10.5458
▁sporcu	-10.5458
▁Kılıç	-10.5462
:15	-10.5464
▁Evde	-10.5464
▁olduğunun	-10.5466
TAN	-10.5467
▁sayısını	-10.547
▁yapılmıştır	-10.5472
▁Orada	-10.5474
▁sokağa	-10.5474
72	-10.5475
DU	-10.5475
nan	-10.548
▁aralık	-10.548
landır	-10.5482
▁kasa	-10.5483
▁Genellikle	-10.5485
▁Memur	-10.5486
▁muhafaza	-10.5486
car	-10.5488
▁salgını	-10.549
▁41	-10.5491
▁açıklamalar	-10.5491
▁itibarıyla	-10.5492
▁Gerekli	-10.5494
▁Ekonomik	-10.5498
▁Çocuklar	-10.5499
▁doktora	-10.5502
▁çektiği	-10.5505
▁yazan	-10.5506
▁eleman	-10.5506
▁modeller	-10.551
▁avantajlı	-10.5512
▁Zonguldak	-10.5513
▁gösterge	-10.5514
▁hane	-10.5515
sün	-10.5517
▁Onur	-10.552
istan	-10.5521
▁çıkmak	-10.5521
▁etiket	-10.5521
▁Sinan	-10.5524
▁geçirme	-10.5525
▁yönlendir	-10.5525
▁%100	-10.5527
üne	-10.5529
▁aracılığı	-10.553
▁Ze	-10.5532
▁taşın	-10.5532
▁düşünen	-10.5533
▁istek	-10.5533
▁bilin	-10.5533
pınar	-10.5538
▁Arama	-10.5538
▁kavramı	-10.5539
▁oluşturulan	-10.554
▁Gerek	-10.5544
İS	-10.5547
kçe	-10.5547
▁IP	-10.5547
▁2-	-10.5549
▁filtre	-10.5551
▁ca	-10.5552
meden	-10.5553
▁Meydanı	-10.5556
▁Sözleşme	-10.5557
▁Kalkınma	-10.5558
▁stratejik	-10.5559
▁hu	-10.556
▁Ermeni	-10.5563
▁ku	-10.5564
demir	-10.5564
▁cephe	-10.5565
▁operasyonu	-10.5566
▁Siteleri	-10.5568
▁ziyaretçi	-10.5571
▁Parkı	-10.5571
OĞLU	-10.5572
lerdi	-10.5572
▁makyaj	-10.5582
▁artırmak	-10.5588
▁Efendi	-10.5588
):	-10.5589
76	-10.5589
▁Güç	-10.5589
▁bölgelerde	-10.559
Di	-10.5591
▁seçilen	-10.5594
ari	-10.5594
▁yükselt	-10.5595
▁Plan	-10.5598
▁aldığınız	-10.5602
▁etrafında	-10.5606
▁Kadıköy	-10.5607
▁masaj	-10.5607
▁Cami	-10.561
zar	-10.5611
▁44	-10.5612
▁oyuncuları	-10.5612
▁yazılımı	-10.5615
▁ziyade	-10.5616
▁sizden	-10.5619
▁etmekte	-10.5621
▁değişme	-10.5623
▁firmanın	-10.5623
▁düş	-10.5623
▁yöntemler	-10.5624
▁verilmiştir	-10.5626
▁filmleri	-10.5629
▁beğen	-10.5629
▁oluşturur	-10.563
▁kısaca	-10.5631
lerinizin	-10.5631
▁Devleti	-10.5632
▁ocak	-10.5642
▁konuyla	-10.5643
▁Komutanlığı	-10.5648
meyecek	-10.5649
Rİ	-10.5651
▁İndir	-10.5654
▁tamir	-10.5654
▁anlık	-10.5671
▁bunlardan	-10.5672
▁tanış	-10.5673
▁ayağı	-10.5676
▁verilerin	-10.5679
▁mesafede	-10.568
wi	-10.5681
▁sisteme	-10.5683
▁Firma	-10.5683
▁içeri	-10.5683
▁çeviri	-10.5684
▁Cengiz	-10.5685
▁Kol	-10.5689
▁Arabistan	-10.569
▁siyasal	-10.569
▁ir	-10.569
▁Has	-10.5691
▁kurdu	-10.5692
▁İLE	-10.5694
▁rolü	-10.5694
▁karakteri	-10.5697
▁yerlere	-10.5697
▁IŞİD	-10.5703
bak	-10.5703
▁gelecekte	-10.5705
▁bizden	-10.5707
▁dinleme	-10.571
▁malzemeler	-10.571
:)	-10.5711
▁referans	-10.5715
▁üyeliği	-10.5716
▁po	-10.5717
▁YENİ	-10.572
▁şimdiden	-10.5721
▁arkadaşlarımız	-10.5723
▁başladım	-10.5724
sil	-10.5724
▁etkileyen	-10.5725
▁duy	-10.5731
▁;	-10.5731
▁yaratıcı	-10.5732
▁toplamda	-10.5734
▁başından	-10.5736
▁sektörünün	-10.5737
▁cadde	-10.5739
▁Personel	-10.5744
▁omuz	-10.5744
71	-10.5744
daş	-10.5746
▁gerekçesiyle	-10.5749
▁uydu	-10.575
▁Konut	-10.5751
▁endeksi	-10.5755
acağınız	-10.5758
nuzu	-10.5759
▁bankalar	-10.5762
▁Pan	-10.5763
▁tıp	-10.5763
▁ilerleyen	-10.5764
ther	-10.5764
▁alınmış	-10.5767
▁görebilirsiniz	-10.5769
-12	-10.5771
▁fırın	-10.5773
▁gündüz	-10.5774
▁Gelir	-10.5776
▁mevsim	-10.5777
▁değin	-10.5777
yet	-10.5784
üstü	-10.5786
▁Filistin	-10.5786
▁Adıyaman	-10.5789
▁kitaplar	-10.5791
▁önemlisi	-10.5791
▁ilke	-10.5796
▁ER	-10.5796
▁sorumluluğu	-10.5798
▁görüntüler	-10.5799
nur	-10.58
▁olabileceğini	-10.5801
▁Özellikleri	-10.5801
▁tarihte	-10.5802
▁artıyor	-10.5806
▁seviyesine	-10.5806
▁Böylelikle	-10.5806
▁Ortadoğu	-10.5811
▁çevresinde	-10.5811
▁biçim	-10.5812
▁Radyo	-10.5812
low	-10.5814
67	-10.5815
▁Platformu	-10.5815
▁kupon	-10.5822
mizden	-10.5827
▁galibiyet	-10.5827
▁işten	-10.5829
▁Gerçekten	-10.5832
▁burun	-10.5833
▁ismini	-10.5836
▁Avustralya	-10.5836
▁direk	-10.5837
yoruz	-10.5839
▁severler	-10.5841
NİN	-10.5844
▁seminer	-10.5848
ildiği	-10.5851
▁Oyuncu	-10.5851
▁başlattı	-10.5855
▁Bunlardan	-10.5855
▁inanıyorum	-10.5858
▁Mahmut	-10.5858
▁rakibi	-10.586
▁yayımlanan	-10.586
▁ederler	-10.5861
51	-10.5862
▁ilanları	-10.5864
ıdır	-10.5866
▁Şubesi	-10.5869
▁biçimi	-10.5873
▁Saray	-10.5874
▁Özdemir	-10.5875
▁Ey	-10.5879
▁ispat	-10.588
▁Mer	-10.588
▁sun	-10.5882
▁evvel	-10.5883
▁Çay	-10.5885
ity	-10.5885
▁Bakım	-10.5887
▁uyarınca	-10.5887
▁Yaşar	-10.5888
▁Hürriyet	-10.5892
▁Far	-10.5894
▁ediyorlar	-10.5894
lıklar	-10.5895
▁gecikme	-10.5897
▁Salih	-10.5898
inizin	-10.5899
▁VAR	-10.5901
▁aydınlatma	-10.5902
▁bağlantısı	-10.5905
▁transferi	-10.5906
▁ölçüm	-10.5909
▁görmüş	-10.5911
▁bilinci	-10.5911
▁hayli	-10.5914
▁Biraz	-10.5917
mizle	-10.5921
▁sağlayabilir	-10.5921
▁ayrıldı	-10.5922
▁kariyer	-10.5924
2020	-10.5926
cam	-10.5928
▁dert	-10.593
:45	-10.5931
▁Fuarı	-10.5931
▁am	-10.5932
▁zamandır	-10.5933
▁kı	-10.5934
▁edebiyat	-10.5936
▁tavır	-10.5938
▁Kuru	-10.5941
▁kategorisinde	-10.5941
▁Hedef	-10.5945
▁Dar	-10.5945
age	-10.5946
▁geçerek	-10.5946
▁Ayşe	-10.5946
▁SEO	-10.5947
▁söylen	-10.5949
▁tutuklu	-10.5952
ebileceğiniz	-10.5955
▁sorunların	-10.5955
▁form	-10.5957
▁Adresi	-10.5957
iki	-10.5958
▁Hi	-10.5959
▁Üretim	-10.5959
▁lastik	-10.596
rik	-10.5962
▁entegre	-10.5963
▁Adet	-10.5963
▁gelişmeleri	-10.5963
▁etmişti	-10.5965
▁hamile	-10.5965
▁içerisine	-10.5967
▁sunuyoruz	-10.5972
ros	-10.5973
96	-10.5974
▁mo	-10.5975
tes	-10.5975
▁şartlar	-10.5976
▁Gi	-10.5977
▁hurda	-10.598
▁getiri	-10.598
▁dön	-10.5981
▁halkının	-10.5981
▁Süt	-10.5983
▁etkinlikler	-10.5983
▁öğret	-10.5983
57	-10.5986
▁belgeler	-10.5986
▁bayanlar	-10.5986
eş	-10.5988
▁kuruluşları	-10.5988
▁Ağ	-10.5989
▁ez	-10.599
▁arkadaşları	-10.5991
▁Kızıl	-10.5994
▁Selim	-10.5994
▁dahilinde	-10.5994
▁belirgin	-10.5995
▁işini	-10.5997
tti	-10.6
▁başardı	-10.6001
leştir	-10.6001
▁bedel	-10.6001
▁oyuncuların	-10.6002
▁aldığımız	-10.6003
▁turist	-10.6006
▁görüldü	-10.6009
▁festival	-10.6009
yerek	-10.6012
GA	-10.6012
▁Yazılım	-10.6014
tis	-10.6014
▁deneyimli	-10.6014
▁vermeden	-10.6014
▁göreve	-10.6016
▁arı	-10.6019
vet	-10.6019
▁Ulu	-10.602
▁sertifika	-10.602
▁his	-10.6025
▁har	-10.6027
▁47	-10.6032
idir	-10.6033
ilmelidir	-10.6033
▁geçmişi	-10.6033
▁akışı	-10.6038
likle	-10.6038
▁dersleri	-10.6038
▁olabiliyor	-10.6039
▁salon	-10.6039
2012	-10.604
▁yaşamı	-10.604
TM	-10.6041
▁sözler	-10.6043
▁şeyden	-10.6044
hil	-10.6047
▁devleti	-10.6048
▁Çorum	-10.6051
▁damla	-10.6052
▁olanı	-10.6054
▁karanlık	-10.6055
▁yiyecek	-10.6055
▁boyun	-10.6059
landığını	-10.6059
▁vesile	-10.606
▁görünce	-10.6061
▁yapıldığını	-10.6065
▁öykü	-10.6065
▁edildiğini	-10.6068
▁çağır	-10.607
▁yönetmen	-10.6071
ES	-10.6076
);	-10.6076
▁Turan	-10.6078
▁seviyesinde	-10.6079
▁kale	-10.6081
!..	-10.6083
▁yürürlüğe	-10.6086
▁sağladı	-10.609
ıldığını	-10.609
▁budur	-10.6091
▁cenaze	-10.6092
kü	-10.6092
▁sahada	-10.6094
▁tazminat	-10.6095
▁TÜRK	-10.6095
lenmektedir	-10.6096
▁hocam	-10.61
▁ambalaj	-10.6103
▁GB	-10.6103
▁Fen	-10.6103
:20	-10.6104
▁başlamıştır	-10.6105
▁sok	-10.6105
▁Geç	-10.6105
▁Güvenilir	-10.6106
▁dönme	-10.611
▁nereye	-10.611
▁ga	-10.6111
▁artı	-10.6112
▁Çözüm	-10.6112
▁tahliye	-10.6118
▁sade	-10.6119
▁gösteri	-10.612
ix	-10.6126
▁farklılık	-10.6128
▁KO	-10.6139
▁takibi	-10.614
FA	-10.614
stra	-10.614
▁Yayınları	-10.6142
78	-10.6142
▁Garanti	-10.6144
mp	-10.6146
▁mini	-10.6146
▁Emir	-10.6149
▁tanıt	-10.6151
AH	-10.6152
▁vitamin	-10.6153
▁bölgenin	-10.6155
▁lo	-10.6155
▁sıcaklığı	-10.6157
▁Hükümet	-10.616
▁sözlerine	-10.616
▁odaklan	-10.616
yıp	-10.6161
▁kaba	-10.6163
yüz	-10.6165
▁rehber	-10.6167
▁istediğim	-10.6169
▁Pay	-10.617
▁Erdem	-10.6171
▁İzle	-10.6174
▁girecek	-10.6175
▁ör	-10.6175
▁menü	-10.6177
▁geçmesi	-10.6177
▁mekân	-10.6179
▁kurulmuş	-10.6185
▁sınıfı	-10.6186
▁başvurusu	-10.6187
eceğiniz	-10.6189
▁verdik	-10.619
▁irade	-10.6192
▁durma	-10.6192
▁Maliye	-10.6195
cek	-10.6197
oto	-10.6197
▁yapılarak	-10.6198
▁Bizler	-10.6198
▁elinden	-10.6199
▁52	-10.62
▁man	-10.62
▁protokol	-10.6203
▁hadis	-10.6205
atör	-10.6206
▁Gönderen	-10.6207
▁iftar	-10.6208
▁ilaçlar	-10.6209
▁inancı	-10.6209
▁gönderilen	-10.6212
▁sürdürüyor	-10.6213
▁üreten	-10.6215
▁niye	-10.6216
▁Avukat	-10.6217
▁Çe	-10.6217
▁birşey	-10.6217
▁46	-10.622
▁hazırladığı	-10.6221
▁Kargo	-10.623
▁krem	-10.6233
▁canım	-10.6234
61	-10.6234
▁yatırımlar	-10.6234
▁Min	-10.6234
▁özelliklerini	-10.6234
▁sınırı	-10.6235
▁AS	-10.6239
▁tadını	-10.624
▁zorluk	-10.624
▁kaldırma	-10.6245
▁bugünkü	-10.6248
likleri	-10.625
▁ra	-10.6251
▁seviyorum	-10.6251
▁Hü	-10.6252
▁yaşadı	-10.6253
▁Cilt	-10.6253
▁Aşağıdaki	-10.6255
▁bitti	-10.6256
▁İşlemleri	-10.6263
▁Gelin	-10.6263
▁yoluna	-10.6264
▁tescil	-10.6264
dd	-10.627
▁devri	-10.627
▁Hepsi	-10.6271
▁nitelikli	-10.6274
▁başladık	-10.6276
▁oluşturuyor	-10.6277
▁öncü	-10.6279
▁şiddetli	-10.6279
▁Camii	-10.6279
▁toplantıda	-10.628
▁güçlendir	-10.628
▁mesleği	-10.6285
▁önlemler	-10.6287
ile	-10.6288
▁töreni	-10.6292
▁almanız	-10.6293
▁Yaş	-10.6294
▁topla	-10.6294
▁bakıldığında	-10.6296
▁bireyler	-10.6299
▁Direktörü	-10.6299
▁özgün	-10.63
▁Kurt	-10.6304
▁Kimi	-10.6307
▁ikna	-10.6307
siyon	-10.6307
▁yüze	-10.6309
▁tutum	-10.6311
zon	-10.6311
▁fiyatlı	-10.6313
eb	-10.6315
▁Motor	-10.6316
▁memnuniyeti	-10.6316
▁İnşallah	-10.632
▁Tekirdağ	-10.6321
▁Seyahat	-10.6322
▁Oyunları	-10.6322
▁edenler	-10.6323
ilip	-10.6323
▁taksit	-10.6327
muştur	-10.6328
▁Dev	-10.6329
▁intihar	-10.6339
▁cinsiyet	-10.6341
▁İz	-10.6342
mden	-10.6349
▁Holding	-10.6351
▁bulut	-10.6352
▁hastanede	-10.6354
▁aldıkları	-10.6357
▁Diyanet	-10.6358
▁Beni	-10.6359
ks	-10.6361
▁yazıları	-10.6361
▁Gelen	-10.6364
US	-10.6366
▁köyü	-10.6375
leyip	-10.638
▁oturum	-10.6381
▁koca	-10.6381
52	-10.6384
▁öfke	-10.6387
▁ulaşıl	-10.639
▁Salonu	-10.6391
▁kuruluşu	-10.6395
▁Yapılır	-10.6397
▁Kars	-10.6398
▁makam	-10.6398
mızdan	-10.6402
▁İlçesi	-10.6405
▁başlamak	-10.6405
▁cemaat	-10.641
▁kıymetli	-10.6412
kâr	-10.6414
▁emanet	-10.6414
▁okula	-10.6414
ebilmektedir	-10.6415
▁Yoksa	-10.6415
▁Düğün	-10.6416
abil	-10.642
▁paylaşımı	-10.6422
▁İsveç	-10.6422
▁Play	-10.6426
▁Bulut	-10.6426
▁haksız	-10.6426
▁kadını	-10.6429
▁verdiğini	-10.643
▁rica	-10.643
▁uyma	-10.6432
▁yıldan	-10.6432
▁toplama	-10.6434
▁inci	-10.6434
syon	-10.6437
mil	-10.6438
▁bayi	-10.6441
▁gösterilen	-10.6442
▁(2	-10.6442
▁Un	-10.6442
▁hayran	-10.6443
ıyordu	-10.6444
▁Eve	-10.6444
▁mikro	-10.6445
▁ülkeleri	-10.6446
▁Gör	-10.6446
▁gümüş	-10.6447
▁yetkisi	-10.6448
▁temizleme	-10.6449
▁sayıları	-10.6449
▁Otomobil	-10.6454
▁yükselen	-10.6456
▁koydu	-10.6459
▁Mutlu	-10.6459
▁detay	-10.6459
▁geçiren	-10.6468
▁değişken	-10.6469
▁sever	-10.647
▁bulan	-10.647
▁geliş	-10.6471
▁heyeti	-10.6472
▁akım	-10.6473
▁avukat	-10.6474
▁çağrısı	-10.6474
▁Fazla	-10.648
▁zorla	-10.648
▁satır	-10.6481
▁samimi	-10.6484
▁aittir	-10.6484
▁suçlu	-10.6484
▁mar	-10.6486
▁olanağı	-10.6487
▁43	-10.6489
▁açar	-10.6489
▁2004	-10.6491
IŞ	-10.6492
▁stratejileri	-10.6492
▁Ziyaret	-10.6494
▁CEO	-10.6495
▁söylediği	-10.6495
▁KKTC	-10.6497
▁ruhu	-10.6501
▁ah	-10.6501
anlar	-10.6502
▁yağış	-10.6502
▁çoğunlukla	-10.6505
▁silin	-10.6506
▁disk	-10.6507
▁robot	-10.6507
89	-10.6508
▁Japon	-10.651
▁organ	-10.6512
▁etkisini	-10.6514
▁metrekare	-10.6516
▁Bize	-10.6518
▁adaylar	-10.6526
▁im	-10.6526
▁Kongre	-10.6526
▁kardeşim	-10.653
larınıza	-10.653
98	-10.653
▁nükleer	-10.6531
▁çerçeve	-10.6532
▁Hareket	-10.6532
▁çalışmaların	-10.6534
▁Test	-10.6534
TÜ	-10.6535
▁kullanılmak	-10.6536
▁con	-10.6536
▁sürecini	-10.6539
eme	-10.654
▁turu	-10.6541
▁evli	-10.6551
▁katılımcı	-10.6552
▁desen	-10.6555
▁Gümüş	-10.6555
▁indirme	-10.6558
▁bununla	-10.6558
▁mesela	-10.6566
▁yerinden	-10.6569
▁Am	-10.6574
▁Sözleşmesi	-10.6577
▁görünen	-10.6577
▁nereden	-10.6578
▁tespiti	-10.6586
bol	-10.6587
▁belirtileri	-10.6589
:50	-10.6589
▁olursak	-10.659
93	-10.6591
amadığı	-10.6592
▁puanı	-10.6595
▁Isparta	-10.6596
▁kesme	-10.6597
▁yaşar	-10.6599
▁Gir	-10.6601
▁Profesyonel	-10.6603
nç	-10.6607
▁yaratma	-10.6608
▁kurduğu	-10.6609
63	-10.6609
▁geliştirilen	-10.661
▁YouTube	-10.6613
maları	-10.6613
▁vergisi	-10.6619
▁Şah	-10.6619
rah	-10.6621
▁söyle	-10.6622
▁Basketbol	-10.6623
▁Şampiyonası	-10.6623
▁Nelerdir	-10.6624
▁sü	-10.6625
▁kaçır	-10.6625
▁kazandır	-10.6631
▁olmasından	-10.6632
▁Mali	-10.6633
▁motoru	-10.6636
ullah	-10.6636
▁avantajı	-10.6636
▁görünür	-10.6637
▁Nakliyat	-10.664
cy	-10.6644
▁Tür	-10.6644
▁direnç	-10.6644
▁eline	-10.6646
▁teslimat	-10.6654
▁ücretleri	-10.6654
▁muhtemel	-10.6656
uncu	-10.6656
▁mimari	-10.6657
▁şişe	-10.6657
ayım	-10.6658
▁peygamber	-10.666
▁bez	-10.6662
▁birey	-10.6662
▁gazetesi	-10.6663
▁imam	-10.6663
▁kaynaklanan	-10.6664
▁meme	-10.6664
AD	-10.6668
▁gözler	-10.6668
:40	-10.667
▁öncelikli	-10.6672
▁dilim	-10.6674
▁belgeleri	-10.6674
▁Kurban	-10.6675
▁İtalyan	-10.6678
▁senetleri	-10.6681
▁oraya	-10.6682
▁yönlendirme	-10.6685
▁ili	-10.6685
▁atılan	-10.6686
▁merhaba	-10.6691
▁yüzünü	-10.6692
▁yazmak	-10.6693
▁belirlendi	-10.6693
▁engelleme	-10.6695
▁ilham	-10.6698
▁Çetin	-10.6698
▁fazlasını	-10.6699
▁organik	-10.6702
▁Tedavi	-10.6704
▁1,5	-10.6705
▁SON	-10.6705
cc	-10.6707
▁git	-10.6707
▁Durum	-10.6707
▁girişi	-10.6708
▁ilgisi	-10.671
▁manzara	-10.671
▁saatlik	-10.6712
▁kavram	-10.6714
▁Dosya	-10.6716
▁fotoğrafları	-10.672
▁ordusu	-10.6723
▁mesai	-10.6724
▁kanat	-10.6725
69	-10.6726
ras	-10.6726
▁Kurumsal	-10.6727
ktadır	-10.6728
▁64	-10.6728
ere	-10.6729
▁7/24	-10.6729
▁tatmin	-10.6731
▁sağlayacaktır	-10.6731
▁kök	-10.6732
erken	-10.6733
miyorum	-10.6736
▁sayfasında	-10.6737
▁açılır	-10.6738
▁Sezon	-10.674
mit	-10.674
▁sevdiği	-10.6741
▁Gökhan	-10.6743
▁ödülü	-10.6744
▁bakmak	-10.6747
▁Sak	-10.6748
lıyoruz	-10.6752
94	-10.6754
▁ikamet	-10.6755
▁bıçak	-10.6755
▁talepleri	-10.6756
▁taahhüt	-10.6757
▁baştan	-10.6758
▁hepsini	-10.6759
▁iOS	-10.676
▁hamle	-10.6761
▁tarafta	-10.6761
AP	-10.6765
con	-10.6768
▁kredisi	-10.6769
:13	-10.677
▁bat	-10.677
▁sarf	-10.6779
▁taban	-10.6779
▁etken	-10.678
▁alındığı	-10.6781
▁önemini	-10.6784
▁John	-10.6787
yr	-10.6787
DİR	-10.6788
▁Gel	-10.6791
▁dayanışma	-10.6794
▁hükümetin	-10.6796
▁belirtmek	-10.6797
▁Modelleri	-10.6798
SU	-10.6799
▁giriyor	-10.6802
▁kurumun	-10.6803
ram	-10.6804
çok	-10.6804
▁bağlıdır	-10.6809
Siz	-10.6812
▁müdürü	-10.6812
▁sevilen	-10.6813
▁İnan	-10.6813
:05	-10.6814
▁turnuva	-10.6815
▁istenilen	-10.6821
▁kg	-10.6823
▁açısı	-10.6825
▁değiştirmek	-10.6826
▁Şa	-10.6834
▁yüklü	-10.684
▁somut	-10.684
Dünya	-10.6841
▁sizinle	-10.6842
82	-10.6843
▁ci	-10.6843
▁başlandı	-10.6846
matik	-10.6847
▁insanlık	-10.6847
pro	-10.6847
:01	-10.6847
▁aldığım	-10.6848
cuk	-10.6848
▁şampiyon	-10.6849
▁Hayvan	-10.6849
kor	-10.685
▁süs	-10.6856
yal	-10.6857
▁sistemler	-10.686
indeki	-10.686
▁edilmelidir	-10.686
manın	-10.6863
▁Trade	-10.6864
▁yık	-10.6865
▁tedbirler	-10.6866
vat	-10.6867
teri	-10.687
▁özgürlüğü	-10.687
larımızla	-10.6871
▁Valiliği	-10.6872
▁imkanları	-10.6874
▁Açıklama	-10.6878
▁göğüs	-10.6884
84	-10.6884
▁Soylu	-10.6886
▁eti	-10.6889
▁ulaşan	-10.6892
87	-10.6892
▁girmesi	-10.6892
▁kimdir	-10.6895
▁Sinema	-10.6902
▁Nitekim	-10.6902
▁Sürekli	-10.6904
▁Kuran	-10.6905
by	-10.6905
▁yapmadan	-10.6906
▁Cor	-10.6907
hir	-10.6911
:18	-10.6912
▁kıyasla	-10.6916
▁gönderdiği	-10.6917
▁kurulum	-10.6918
79	-10.6918
▁işyeri	-10.6924
▁tecrübeli	-10.6924
▁Mahalle	-10.6926
:11	-10.6926
▁durumuna	-10.6927
▁Batman	-10.6928
lerimi	-10.6928
mail	-10.6929
▁üyelerinin	-10.693
▁ortağı	-10.6931
amadı	-10.6933
▁birim	-10.6936
▁Risk	-10.6937
▁Je	-10.6937
▁kurs	-10.6937
ımızı	-10.6939
▁kaya	-10.6942
▁gibidir	-10.6947
▁81	-10.6948
▁bayrak	-10.6948
▁dünyadaki	-10.6951
▁gelmez	-10.6953
▁dosyaları	-10.6954
▁post	-10.6954
▁Bahçe	-10.6955
▁Elektronik	-10.6955
▁(2)	-10.6955
▁tüketim	-10.6957
tum	-10.6958
▁çalışırken	-10.6958
▁aydın	-10.6959
▁kor	-10.6959
▁Yüksel	-10.696
abet	-10.6961
▁kimin	-10.6964
▁bardak	-10.6965
▁müşterilerine	-10.6966
▁öte	-10.6972
▁Bahar	-10.6973
▁programında	-10.6974
▁niyet	-10.6974
▁oradan	-10.6974
▁imkansız	-10.6976
mes	-10.6978
▁Lise	-10.698
yat	-10.6981
▁Gaz	-10.6984
▁Bank	-10.6988
▁Sevgi	-10.6988
▁Zamanı	-10.6989
lerimizde	-10.6989
ime	-10.699
şar	-10.699
:12	-10.699
▁hikayesi	-10.6991
83	-10.6995
▁sizlerin	-10.6995
▁heyet	-10.6995
▁mağlup	-10.6997
Bo	-10.7001
▁araçların	-10.7003
▁ardı	-10.7003
▁sordu	-10.7004
▁mesleki	-10.7004
abileceğini	-10.7008
sıdır	-10.7009
▁ün	-10.701
▁getirerek	-10.7015
▁dağıtım	-10.7016
DIR	-10.7018
▁olayların	-10.702
▁Ada	-10.7021
▁Engin	-10.7023
▁tetik	-10.7023
▁eksiksiz	-10.7023
▁Dağı	-10.7026
▁durdur	-10.7028
▁merkezleri	-10.7029
▁ölümü	-10.7029
▁meta	-10.703
▁azalma	-10.7031
▁liman	-10.7033
▁kanalları	-10.7036
▁hastaların	-10.7037
▁Ekrem	-10.7041
▁Tatil	-10.7042
▁adresine	-10.7044
▁Sonraki	-10.7047
▁okuyan	-10.7047
Haber	-10.7049
▁Ab	-10.7049
bal	-10.7049
▁Kor	-10.705
▁raf	-10.705
ilme	-10.7052
▁le	-10.7053
▁Küresel	-10.7054
▁maddeleri	-10.7055
▁kullanıma	-10.706
▁hizmetlerini	-10.706
▁kullanıldığı	-10.7061
▁tavan	-10.7061
▁ME	-10.7061
▁Giresun	-10.7062
▁Fırat	-10.7062
▁belirlenmesi	-10.7063
▁Aksi	-10.7064
▁kültürü	-10.7066
ms	-10.7069
▁sıradan	-10.7071
▁değerini	-10.7072
▁tedbirleri	-10.7072
▁Qu	-10.7073
▁Kaymakamı	-10.7077
▁sözlerini	-10.7078
kay	-10.7078
▁kafe	-10.7079
▁limon	-10.708
dor	-10.7082
▁1.5	-10.7083
▁kamyon	-10.7083
▁Başbakanı	-10.7084
▁gök	-10.7085
▁Akşam	-10.7085
▁yıllarında	-10.7086
▁adımları	-10.7088
▁dikkati	-10.7088
▁çağ	-10.709
▁Sıcak	-10.709
dikten	-10.7091
laşan	-10.7097
▁nesne	-10.7097
hen	-10.7099
▁Model	-10.71
▁Tra	-10.7101
▁bildiği	-10.7103
▁Gizlilik	-10.7103
▁2002	-10.7104
▁Ödülü	-10.7104
▁tıpkı	-10.7106
▁Hazine	-10.7109
▁sürdürdü	-10.7111
▁önlem	-10.7112
▁Ölüm	-10.7119
▁tekniği	-10.712
▁düşünür	-10.7122
gerçekleştirildi	-10.7122
luğunu	-10.7123
PA	-10.7124
▁basketbol	-10.7124
▁metni	-10.7124
▁tabir	-10.7125
▁kapatma	-10.7128
▁Kimse	-10.7128
arı	-10.713
2021	-10.713
:14	-10.7131
▁düzeltme	-10.7131
rim	-10.7131
▁herkesi	-10.7133
▁kıymet	-10.7133
▁Sağlıklı	-10.7133
▁boşluk	-10.7133
▁Olymp	-10.7134
▁Sch	-10.7136
▁sezonu	-10.7137
▁TÜRKİYE	-10.7137
Ar	-10.7138
▁tavuk	-10.7138
▁Dünyada	-10.7139
▁olmasın	-10.714
tem	-10.7141
▁ayrılma	-10.7142
nızdan	-10.7146
▁Haz	-10.7148
▁programlar	-10.7152
▁Sil	-10.7154
▁Mevcut	-10.7156
▁Hediye	-10.7157
bor	-10.7158
leş	-10.7159
▁sektörün	-10.7159
sco	-10.716
▁almadan	-10.7162
▁EK	-10.7164
▁liraya	-10.7165
ât	-10.7166
▁teknolojileri	-10.7167
▁Cep	-10.7169
▁Parça	-10.717
▁Için	-10.7171
▁makineleri	-10.7171
▁Sorun	-10.7172
▁dönen	-10.7172
İP	-10.7172
▁oyuna	-10.7173
▁koşu	-10.7173
UL	-10.7175
▁görüşmeler	-10.7177
▁tutuklandı	-10.7181
▁sey	-10.7182
▁kuvvetli	-10.7182
▁Opsiyon	-10.7184
▁izleyen	-10.7184
▁Terör	-10.7185
▁vali	-10.7186
▁yaratan	-10.7188
and	-10.7189
▁Hakkı	-10.7189
▁başarıyla	-10.7194
▁vurdu	-10.7195
▁2003	-10.7196
▁gelişmesi	-10.7196
▁Usta	-10.7198
▁54	-10.7199
▁tv	-10.72
▁dek	-10.7202
ACAK	-10.7204
▁konulu	-10.7207
▁sürdüren	-10.7207
:21	-10.7208
74	-10.7211
▁albüm	-10.7211
▁konusundaki	-10.7213
▁Belediyespor	-10.7215
▁İsviçre	-10.7215
ore	-10.7215
▁Göre	-10.722
ligi	-10.7221
:02	-10.7225
:17	-10.7225
▁gönderdi	-10.7226
ls	-10.7234
▁TRT	-10.7234
Do	-10.7235
▁(1	-10.7235
▁tabanlı	-10.7235
▁Onu	-10.7237
▁kararlı	-10.724
▁sürecinin	-10.724
▁ge	-10.7243
▁istemez	-10.7245
▁çiz	-10.7245
ight	-10.7248
:23	-10.7249
lerce	-10.7249
▁haricinde	-10.7253
şu	-10.7254
▁hastalığın	-10.7255
▁kütüphane	-10.7256
▁milletvekilleri	-10.7256
▁ömür	-10.7256
▁direktör	-10.726
▁domates	-10.726
▁fırsatları	-10.7262
▁işlemini	-10.7263
▁kutsal	-10.7265
▁usul	-10.7268
larımızda	-10.7268
▁soğu	-10.7269
▁imar	-10.7269
▁kaçın	-10.727
▁negatif	-10.7271
▁aksi	-10.7271
▁yaşadıkları	-10.7272
▁Sipariş	-10.7273
▁dünyası	-10.7273
▁sürüm	-10.7273
▁unut	-10.7274
▁etmeleri	-10.7275
▁ettiklerini	-10.7275
▁soğan	-10.7277
▁avantajları	-10.7278
▁pi	-10.7278
▁diğeri	-10.728
▁Başkanımız	-10.728
▁olacağına	-10.7281
▁seans	-10.7281
▁Başarı	-10.7283
▁başkanları	-10.7284
▁çoğunluğu	-10.7287
ysanız	-10.7288
▁düşünün	-10.7288
▁verdiğimiz	-10.7289
leştirilmiş	-10.7289
▁gecesi	-10.7294
▁ifadesi	-10.7294
▁benden	-10.7297
▁tez	-10.7298
▁Bence	-10.7298
▁Benzer	-10.73
▁baktığımızda	-10.73
liğinin	-10.7304
rar	-10.7309
▁buluş	-10.7309
▁oluşuyor	-10.7309
▁pişir	-10.7309
▁ahlak	-10.7309
▁Şekil	-10.7315
▁girerek	-10.7317
lip	-10.7318
ünde	-10.7318
▁haberdar	-10.7319
▁seks	-10.732
:25	-10.732
▁tatili	-10.732
:08	-10.7324
▁düzenledi	-10.7324
ğe	-10.7324
▁öden	-10.7324
▁Sü	-10.7326
▁motosiklet	-10.7329
leyecek	-10.7332
▁zafer	-10.7337
:35	-10.7337
ses	-10.7338
92	-10.734
▁kararları	-10.7341
▁yazılmış	-10.7342
▁bildiri	-10.7342
▁Eren	-10.7343
▁laf	-10.7344
▁İzmit	-10.7344
▁çikolata	-10.7346
▁kararını	-10.7346
▁ağırlığı	-10.7348
▁sunum	-10.7351
▁içer	-10.7353
▁olacaksınız	-10.7353
▁adamın	-10.7353
▁tahsis	-10.7353
▁filmler	-10.7355
▁Say	-10.7355
▁ekibimiz	-10.7356
▁kupa	-10.7357
▁savaşın	-10.7357
▁uygulanır	-10.7359
▁denen	-10.7362
ling	-10.7362
▁Paylaş	-10.7362
▁Çalışan	-10.7364
▁beton	-10.7364
▁katılmak	-10.7364
▁şehirde	-10.7365
▁hazırlanmış	-10.7365
▁kaldırıldı	-10.7366
▁Yılı	-10.7367
▁kalitesini	-10.7368
fo	-10.7371
▁Esnaf	-10.7374
▁kolu	-10.7376
▁yahut	-10.7377
GB	-10.738
rem	-10.7381
▁gerilim	-10.7382
leşmesi	-10.7382
▁tanık	-10.7384
abiliriz	-10.7384
▁fazlasıyla	-10.7385
▁macera	-10.7386
▁delil	-10.7387
▁zorundadır	-10.7389
▁kentin	-10.7389
▁tamamlanması	-10.7389
▁Yasa	-10.739
▁atmak	-10.739
▁nefret	-10.739
MO	-10.739
▁Trafik	-10.7391
▁kurallar	-10.7391
▁aran	-10.7395
:43	-10.7395
▁Ye	-10.7395
▁kurumları	-10.7396
▁karlı	-10.7396
:22	-10.7396
▁adli	-10.7397
nal	-10.7398
▁dediğimiz	-10.7399
fen	-10.7405
▁kalmadı	-10.7405
▁kapasitesi	-10.7408
▁eğitime	-10.7409
▁güvence	-10.7409
▁Özer	-10.741
▁belirlemek	-10.741
▁yazımızda	-10.7411
2011	-10.7416
▁kala	-10.7416
▁duyar	-10.7419
-4	-10.742
▁duran	-10.742
▁keyfini	-10.7421
:28	-10.7422
▁haklarını	-10.7423
amayacak	-10.7424
▁zeytin	-10.7426
▁sürümü	-10.7428
▁İbn	-10.7431
fir	-10.7432
▁politik	-10.7433
▁sundu	-10.7437
▁tartış	-10.7438
▁sayfada	-10.7438
▁eli	-10.7439
▁Toplantısı	-10.7439
▁ilişkili	-10.7441
▁Kampanya	-10.7441
nizle	-10.7441
▁sayfası	-10.7441
▁yayım	-10.7442
▁toplanan	-10.7443
▁sinyal	-10.7443
▁türk	-10.7444
▁seçimleri	-10.7444
▁ölen	-10.7444
▁Okunma	-10.7445
▁görülme	-10.7445
▁üste	-10.7445
▁yeter	-10.7446
▁Anti	-10.7447
▁Tut	-10.7447
▁SA	-10.745
▁görünümü	-10.7453
▁Sanal	-10.7453
▁Yukarıda	-10.7454
Ve	-10.7454
▁dönük	-10.7455
ilmiştir	-10.7455
:03	-10.7455
▁layık	-10.7456
▁koyma	-10.7456
▁you	-10.7457
▁Erol	-10.7458
ura	-10.746
▁gerektirir	-10.7462
▁bant	-10.7462
ice	-10.7464
▁gidil	-10.7466
▁Max	-10.7467
hâ	-10.7467
▁görevleri	-10.7467
▁gayrimenkul	-10.7471
ılmalıdır	-10.7471
▁erdi	-10.7472
IT	-10.7472
▁başarısız	-10.7475
▁Birlik	-10.7476
LAMA	-10.748
▁ÖZ	-10.7482
▁Rüya	-10.7483
dılar	-10.7485
▁bölgedeki	-10.7486
▁Üçüncü	-10.7486
▁başlatılan	-10.7489
▁Kastamonu	-10.7491
▁verilmiş	-10.7493
▁WhatsApp	-10.7493
SS	-10.7493
▁Ürünleri	-10.7494
▁OL	-10.7494
:59	-10.7496
▁ağırlıklı	-10.7499
▁verip	-10.75
▁kumar	-10.75
▁kalori	-10.7501
:48	-10.7501
▁tarla	-10.7502
▁önerileri	-10.7502
▁Yanıtla	-10.7504
▁doğdu	-10.7504
▁Amerikalı	-10.7507
▁edebilecek	-10.7507
▁etmiyor	-10.7508
▁Duvar	-10.7508
▁bağır	-10.7509
▁hafıza	-10.7511
sever	-10.7512
▁bahar	-10.7513
▁with	-10.7516
stan	-10.7517
▁Adım	-10.7517
GS	-10.7518
▁ziyareti	-10.7519
▁gerektiren	-10.7521
:33	-10.7523
nizden	-10.7524
▁değiş	-10.7526
▁onur	-10.7527
▁duyarlı	-10.7527
kim	-10.7528
:27	-10.7528
▁Tiyatro	-10.7529
▁değerlendiril	-10.7531
▁yenilikçi	-10.7532
▁çıkmaktadır	-10.7538
▁sır	-10.7542
▁gerçekleştirmek	-10.7543
âm	-10.7544
acağına	-10.7545
▁dis	-10.7545
▁oluşturulması	-10.7545
▁faydaları	-10.7546
▁imkânı	-10.7547
▁haftasında	-10.7547
▁kaydet	-10.7548
:24	-10.7548
▁yürek	-10.7548
▁bardağı	-10.755
▁Metal	-10.7551
▁Saf	-10.7551
▁resmen	-10.7553
▁By	-10.7554
fre	-10.7554
▁Baskı	-10.7555
▁gönderildi	-10.7555
▁Aracı	-10.7556
IYOR	-10.7556
▁devamı	-10.7557
▁mezar	-10.7559
▁yoldan	-10.7561
ileceği	-10.7561
▁sorusuna	-10.7561
▁yapılacağı	-10.7561
KO	-10.7563
▁hazırlanıyor	-10.7564
▁kullanışlı	-10.7565
▁haz	-10.7566
▁zamana	-10.7566
▁mor	-10.7566
▁Cevabı	-10.7567
▁ifadesini	-10.7567
▁Yunus	-10.7567
▁durumunu	-10.7568
▁My	-10.7569
atif	-10.7572
▁Tamam	-10.7574
one	-10.7574
▁itiraf	-10.7576
▁burcu	-10.7581
▁beraberlik	-10.7581
:53	-10.7583
▁bilinmektedir	-10.7584
:19	-10.7584
▁hareketleri	-10.7585
▁hap	-10.7589
▁ayının	-10.7589
sındaki	-10.759
2015	-10.759
▁varlığını	-10.7592
RI	-10.7596
▁midir	-10.7596
▁Bakanlık	-10.7597
▁geldik	-10.7598
▁alev	-10.76
▁bay	-10.76
▁Toprak	-10.7601
▁görevlisi	-10.7601
▁fotoğrafı	-10.7601
larımı	-10.7606
pp	-10.761
▁unsur	-10.7611
▁örgü	-10.7612
▁İdaresi	-10.7613
:55	-10.7614
▁Turkcell	-10.7614
▁zinciri	-10.7615
üş	-10.7616
▁savcı	-10.7616
▁sıkça	-10.7616
▁(3	-10.7617
cal	-10.7619
▁gerçekleştirme	-10.7621
▁çamaşır	-10.7622
▁Milletler	-10.7622
:16	-10.7622
▁cinayet	-10.7623
oy	-10.7624
▁açıklamaları	-10.7624
▁Oldu	-10.7626
81	-10.7627
▁Pazarlama	-10.7628
▁örnekleri	-10.7635
▁sorunlarını	-10.7637
▁Tri	-10.7638
▁ayrılan	-10.7644
▁edilemez	-10.7645
▁yapabilecek	-10.7647
▁eserleri	-10.7647
▁Air	-10.7647
▁af	-10.7648
▁korun	-10.7648
▁açıklanan	-10.765
▁ekipler	-10.7653
▁City	-10.7654
▁sonsuz	-10.7655
▁karıştır	-10.7657
▁seti	-10.7657
:29	-10.7658
▁yüzyıl	-10.766
▁maçın	-10.766
▁verdikleri	-10.766
dıktan	-10.766
▁Başakşehir	-10.7662
▁ikram	-10.7663
▁fiyata	-10.7664
▁danışmanlık	-10.7664
lediği	-10.7667
▁56	-10.7668
▁böbrek	-10.7671
▁sağlan	-10.7672
▁cennet	-10.7672
▁ömrü	-10.7673
▁3-	-10.7675
:06	-10.7676
▁arsa	-10.7679
▁Alevi	-10.768
▁bölgesel	-10.7681
▁ölme	-10.7681
▁53	-10.7681
▁görün	-10.7682
▁kaydedildi	-10.7683
:42	-10.7685
▁sitemizde	-10.7687
▁kaleme	-10.7689
▁kül	-10.769
▁Makine	-10.7691
▁hastanın	-10.7691
▁gez	-10.7698
▁hile	-10.7698
▁doğrusu	-10.77
▁kokusu	-10.7702
oid	-10.7705
▁dediler	-10.7705
▁yenileme	-10.7705
ys	-10.7706
▁dekorasyon	-10.771
the	-10.7711
:38	-10.7711
▁mat	-10.7717
▁sitelerinde	-10.7718
▁süresince	-10.7718
▁niteliği	-10.7719
:36	-10.772
▁tanrı	-10.7723
▁Davutoğlu	-10.7724
▁eklendi	-10.7726
Ev	-10.7726
▁programına	-10.7728
alan	-10.7729
▁karşılamak	-10.773
▁fotoğraflar	-10.7731
▁gereksiz	-10.7732
UZ	-10.7734
▁kurucusu	-10.7735
▁İmamoğlu	-10.7735
▁dinlenme	-10.7739
▁hikâye	-10.774
73	-10.7741
▁kurumu	-10.7742
▁kombi	-10.7742
:37	-10.7743
▁AA	-10.7744
sis	-10.7744
▁Tüketici	-10.7748
üs	-10.7752
▁MADDE	-10.7753
▁cerrahi	-10.7755
▁görmeye	-10.7758
▁kesintisiz	-10.776
▁duyulan	-10.776
▁koşullar	-10.776
▁yaklaş	-10.7764
:26	-10.7767
▁planları	-10.7769
▁dünyasının	-10.7772
▁Esas	-10.7773
▁açıklamaya	-10.7774
▁diyebiliriz	-10.7774
▁girişimci	-10.7774
:46	-10.7774
▁ekleyin	-10.7775
▁çekilme	-10.7776
▁içe	-10.7777
▁mantıklı	-10.7777
▁işlemlerinin	-10.7777
Ko	-10.7777
▁ihracatı	-10.7778
ach	-10.7779
bri	-10.778
luyor	-10.778
ray	-10.7782
▁bireylerin	-10.7782
▁dördüncü	-10.7784
An	-10.7785
▁yazılar	-10.7786
▁kullanılacak	-10.7787
▁Sekreteri	-10.7787
▁içinden	-10.7787
▁yaklaşımı	-10.7788
▁riskli	-10.7788
diler	-10.7788
cer	-10.779
▁mahkum	-10.7791
▁Tor	-10.7792
yazı	-10.7793
▁49	-10.7795
▁düzenlemeler	-10.7796
▁sür	-10.7796
▁yetiştir	-10.7797
▁Magazin	-10.7797
Cİ	-10.7797
▁geçerlidir	-10.7798
▁daim	-10.78
▁kalk	-10.7802
▁artar	-10.7802
▁çare	-10.7805
▁mevzuat	-10.781
▁yaşandığı	-10.7811
▁katil	-10.7811
:41	-10.7813
▁Devam	-10.7814
likten	-10.7815
form	-10.7816
▁Adres	-10.7819
▁bağlamda	-10.7821
▁yar	-10.7821
▁Anahtar	-10.7821
eç	-10.7822
▁Bina	-10.7823
▁çalışanların	-10.7823
▁Sistemleri	-10.7824
▁Öğrenciler	-10.7826
▁ülkeyi	-10.7827
▁gündür	-10.7828
▁buluştu	-10.7828
▁mum	-10.7829
▁itfaiye	-10.783
▁stil	-10.783
ef	-10.7832
:58	-10.7833
▁Antik	-10.7836
▁per	-10.7836
▁ürünlerini	-10.7836
▁2-3	-10.7837
▁ağzı	-10.7837
▁İSTANBUL	-10.7838
▁Hali	-10.784
▁kullanılıyor	-10.7841
Nİ	-10.7841
unuzu	-10.7844
▁ailenin	-10.7844
▁Berlin	-10.7844
▁Kütahya	-10.7845
▁tadı	-10.7848
▁Mak	-10.7849
▁Rehberi	-10.785
▁Moskova	-10.785
▁dilediğiniz	-10.7851
▁tıklayarak	-10.7854
▁Suç	-10.7854
▁Fiyatı	-10.7856
▁Yangın	-10.7858
▁doğalgaz	-10.7858
▁sorusu	-10.7858
▁tedarik	-10.786
Mü	-10.7861
▁UEFA	-10.7861
:47	-10.7862
▁gezegen	-10.7863
▁parası	-10.7864
dro	-10.7865
▁anlatım	-10.7866
▁kilise	-10.7866
yâ	-10.7869
▁ac	-10.7873
melisiniz	-10.7874
▁uygulan	-10.7876
▁gümrük	-10.7877
▁Yalnız	-10.7881
▁Balık	-10.7881
▁problemleri	-10.7883
▁kurumların	-10.7885
gil	-10.7886
▁sekiz	-10.7888
lanıp	-10.789
iyeti	-10.7892
▁pilot	-10.7894
▁efsane	-10.7896
▁Toplantı	-10.7896
▁Ap	-10.7897
▁özet	-10.7898
▁adamları	-10.7898
MEK	-10.79
▁BO	-10.79
▁görüntüleri	-10.79
RAN	-10.7901
▁kazanır	-10.7901
▁kanı	-10.7902
▁Sayı	-10.7904
▁atölye	-10.7905
▁katlı	-10.7906
▁seviyeye	-10.7907
:32	-10.7908
▁mantar	-10.7909
▁Full	-10.791
▁Adnan	-10.7911
▁Liste	-10.7915
▁bizde	-10.7919
▁51	-10.792
▁oynuyor	-10.7921
▁otur	-10.7922
:57	-10.7923
▁sürecin	-10.7924
▁Afganistan	-10.7924
Ra	-10.7924
:31	-10.7925
▁etkisiyle	-10.7927
▁Mutfak	-10.7928
▁önlemleri	-10.793
rü	-10.7933
▁kendimizi	-10.7938
▁karşılaştır	-10.7938
▁üyelerine	-10.7941
▁onlarla	-10.7941
▁Ümit	-10.7944
▁Veli	-10.7944
▁Kalp	-10.7947
▁taşır	-10.7947
▁benzersiz	-10.7949
yseniz	-10.7949
▁dâhil	-10.7951
▁yaratmak	-10.7955
fl	-10.7957
▁müdür	-10.7957
▁yaprak	-10.7957
▁tarihinin	-10.7958
▁işletmeler	-10.7958
▁Düzen	-10.7959
▁karın	-10.7961
▁veriliyor	-10.7961
:54	-10.7962
▁gönderi	-10.7962
▁Market	-10.7962
▁Post	-10.7964
▁Tanı	-10.7964
▁oturan	-10.7968
▁gölge	-10.797
▁Bol	-10.7971
göz	-10.7971
▁suya	-10.7974
▁işlemlerin	-10.7977
▁RE	-10.798
:04	-10.7981
▁ulaş	-10.7981
▁bölümünü	-10.7983
Mo	-10.7983
91	-10.7983
▁geçecek	-10.7986
▁tasarlanmış	-10.7987
▁çözül	-10.7989
:09	-10.7989
▁tarihe	-10.7989
▁girip	-10.799
▁Yorumları	-10.7991
▁tesisi	-10.7991
▁kişiden	-10.7992
▁yazılan	-10.7995
▁etmeden	-10.7995
▁sandalye	-10.7995
▁onayı	-10.7995
:56	-10.7997
dî	-10.8002
:51	-10.8003
ble	-10.8003
▁Dava	-10.8005
▁Tal	-10.8006
:07	-10.801
▁Serdar	-10.8014
▁memuru	-10.8015
▁konularında	-10.8016
▁açığı	-10.8018
▁çalışmalara	-10.8019
▁Ortak	-10.802
▁Sermaye	-10.8022
▁razı	-10.8025
▁reform	-10.8025
▁bozulma	-10.8026
▁riskini	-10.8026
lemiş	-10.8028
▁görüldüğü	-10.8029
▁başlık	-10.803
▁çevir	-10.8032
▁kuran	-10.8033
▁yavru	-10.8034
▁ayet	-10.8035
MAK	-10.8035
▁kuruluşlar	-10.8037
▁koymak	-10.8038
TR	-10.804
▁olanların	-10.8041
▁başarısı	-10.8042
ong	-10.8042
▁içerisindeki	-10.8042
kle	-10.8043
▁bulunmakta	-10.8044
▁ucu	-10.8044
▁hazırlama	-10.8046
▁tuvalet	-10.8046
▁jandarma	-10.8049
▁üzüntü	-10.8049
▁yetkililer	-10.805
▁sütü	-10.805
▁Kir	-10.8051
▁müthiş	-10.8051
▁Emlak	-10.8052
▁yaşat	-10.8053
▁Telekom	-10.8053
▁çalışacak	-10.8054
▁dosyası	-10.8054
:34	-10.8057
▁Normal	-10.8058
UK	-10.8059
▁ortaklık	-10.8059
▁kullanmayı	-10.8061
olojik	-10.8063
▁Oyna	-10.8063
▁denize	-10.8063
‘	-10.8073
▁ilim	-10.8073
▁verildiği	-10.8076
▁elini	-10.8078
▁kek	-10.8078
▁Avusturya	-10.8079
-5	-10.8079
▁edeceği	-10.8081
▁KDV	-10.8081
▁Terim	-10.8087
▁yaptığım	-10.8088
▁vatandaşı	-10.809
▁gençlerin	-10.8091
▁mıdır	-10.8091
▁Zafer	-10.8092
▁deme	-10.8094
▁Mini	-10.8095
▁Görüntü	-10.8095
▁Gölü	-10.8097
▁değilse	-10.8099
▁bozma	-10.81
▁bölgelerinde	-10.8101
▁Alışveriş	-10.8101
▁Sel	-10.8103
▁şehrinde	-10.8103
LO	-10.8108
▁Che	-10.8109
▁tra	-10.8109
TS	-10.811
▁bebeğin	-10.811
▁yapıya	-10.8112
lıyız	-10.8112
▁yılların	-10.8112
▁tahsil	-10.8114
▁mantığı	-10.8116
▁katma	-10.8117
▁Tak	-10.8117
▁etkileme	-10.8117
ino	-10.8118
lit	-10.8118
▁Bunları	-10.8119
▁işareti	-10.8119
▁değerler	-10.812
▁bozukluğu	-10.812
▁İdare	-10.8121
▁meşhur	-10.8121
▁eserler	-10.8123
▁Naz	-10.8123
▁anlaşması	-10.8123
ag	-10.8125
▁planlanan	-10.8128
▁72	-10.8128
▁Birkaç	-10.8129
sion	-10.813
▁maaşı	-10.8132
ettin	-10.8133
▁Yargıtay	-10.8133
Çok	-10.8133
:44	-10.8133
▁göstergesi	-10.8135
▁giderken	-10.8135
▁doları	-10.8137
▁Libya	-10.8139
▁patates	-10.8142
▁Gelecek	-10.8143
▁dersler	-10.8143
▁görüntülü	-10.8144
▁kazandığı	-10.8148
▁KUR	-10.815
▁enerjisi	-10.8151
mun	-10.8151
EP	-10.8152
▁bilinçli	-10.8153
▁hesapları	-10.8153
97	-10.8154
laşmış	-10.8157
▁Bulgaristan	-10.8158
▁dersi	-10.816
NIN	-10.816
▁peynir	-10.8161
▁Fu	-10.8163
▁merdiven	-10.8164
Bİ	-10.8167
▁hesabınıza	-10.8167
▁kursu	-10.8168
▁gruplar	-10.8168
▁boşa	-10.817
▁2023	-10.8171
▁Fatma	-10.8172
▁çalışmalarının	-10.8174
▁düşünüyoruz	-10.8175
▁ücretli	-10.8175
▁çalışanlar	-10.8177
▁kimseye	-10.8179
Si	-10.8179
söz	-10.8181
▁tarife	-10.8181
▁sıkıntısı	-10.8181
▁oynadı	-10.8183
▁girmiş	-10.8185
▁Seri	-10.8186
▁izlenme	-10.8186
▁EV	-10.8186
▁Raporu	-10.8187
▁kuruldu	-10.8187
▁Red	-10.8188
▁ayna	-10.8189
▁geleceğe	-10.819
▁yollar	-10.8191
▁eri	-10.8194
▁bilgiyi	-10.8195
▁bağlantılı	-10.8195
▁olgun	-10.8195
▁okulu	-10.8195
▁yağlı	-10.82
▁açılma	-10.8201
▁adlandırılan	-10.8204
▁Pat	-10.8207
▁yeteneği	-10.8207
▁minik	-10.8209
lıkları	-10.8212
▁Dönem	-10.8213
▁buradaki	-10.8214
▁sürecek	-10.8216
▁aktardı	-10.8218
▁Bonusu	-10.8218
▁yerleştir	-10.8218
▁yaşamış	-10.8218
▁Misafir	-10.8219
▁listesinde	-10.8221
▁denildi	-10.8224
▁KA	-10.8225
▁Cihaz	-10.8226
▁ısınma	-10.8227
▁11.	-10.8231
▁geleceğini	-10.8232
▁Bekir	-10.8235
▁güçleri	-10.8236
▁Chat	-10.8237
:39	-10.8237
▁İhale	-10.8242
▁Yalova	-10.8243
▁Değerlendirme	-10.8244
2019	-10.8245
▁cüzdan	-10.8246
▁herşey	-10.8247
▁kuruş	-10.8248
▁sağlanan	-10.825
▁Kaliteli	-10.8251
▁Tv	-10.8252
Ro	-10.8254
acağım	-10.8254
▁düştüğü	-10.8256
▁Geniş	-10.8258
▁sayılır	-10.8258
▁güney	-10.8259
▁internetten	-10.8262
Co	-10.8266
▁Erkekler	-10.8267
müştür	-10.8267
▁ce	-10.8268
▁çekerek	-10.8268
▁hayvanlar	-10.8272
▁kurucu	-10.8274
▁harf	-10.8276
ski	-10.8277
▁topluluk	-10.8277
▁yöre	-10.8279
▁tanımı	-10.828
▁tasar	-10.8281
▁Amazon	-10.8282
ESİ	-10.8284
▁edil	-10.8288
▁hükümleri	-10.829
="	-10.8291
▁türkiye	-10.8292
star	-10.8293
▁çat	-10.8294
▁Bra	-10.8294
▁duyguları	-10.8295
▁konumunda	-10.8298
▁Sınır	-10.8298
▁yaptıklarını	-10.83
▁KPSS	-10.83
▁ilçesine	-10.8301
▁Chi	-10.8301
▁tanışma	-10.8303
▁vazgeçilmez	-10.8304
muzu	-10.8304
▁aza	-10.8305
▁şimdiye	-10.8308
▁bekliyorum	-10.8309
▁devrim	-10.831
▁buğday	-10.831
▁yapıyorum	-10.8314
gerçekleştirdiği	-10.8315
mb	-10.8315
▁rahatsızlık	-10.8318
▁ülkemiz	-10.832
▁kadına	-10.8321
tasyon	-10.8321
▁çıkışı	-10.8322
day	-10.8323
▁Putin	-10.8324
eddin	-10.8324
▁demişti	-10.8326
▁tohum	-10.8326
▁Belge	-10.8327
▁BAŞ	-10.8327
▁kapısı	-10.8328
▁kutusu	-10.833
dis	-10.8334
▁İm	-10.8334
▁peşinde	-10.8335
▁haritası	-10.8338
▁kaldıraç	-10.8338
ÜL	-10.8343
▁çevirme	-10.8344
▁çak	-10.8345
iyorsunuz	-10.8346
▁ot	-10.8346
▁Ona	-10.8347
şen	-10.8349
▁haftanın	-10.8351
▁Mat	-10.8351
:52	-10.8351
▁kullanıcılara	-10.8353
▁renkler	-10.8353
cisi	-10.8359
▁sizde	-10.8359
▁hâlâ	-10.8361
▁yaptıktan	-10.8361
düğünü	-10.8361
▁4-	-10.8362
▁kusursuz	-10.8363
▁kaş	-10.8364
▁Mimar	-10.8364
▁pe	-10.8366
Da	-10.8366
▁devamlı	-10.8367
▁Youtube	-10.8369
Dr	-10.8371
▁otopark	-10.8372
▁garip	-10.8373
ina	-10.8374
▁geliri	-10.8375
▁tamamını	-10.8375
yeni	-10.8377
EV	-10.8378
aklı	-10.8378
▁Özcan	-10.8379
▁sonradan	-10.8379
leşmiş	-10.8381
OP	-10.8383
▁hastalıklar	-10.8385
▁Dört	-10.8385
▁vekil	-10.8386
our	-10.8388
▁USB	-10.8393
▁boşanma	-10.8393
▁kendiniz	-10.8395
fik	-10.8395
▁korona	-10.8396
▁Faruk	-10.8396
▁Avcı	-10.8397
LÜ	-10.8398
▁Birleşmiş	-10.8398
OL	-10.8399
▁etmesini	-10.84
Li	-10.8401
acaksınız	-10.8402
▁sıkıntılar	-10.8402
▁edeceğini	-10.8412
▁santral	-10.8413
▁Af	-10.8413
ağ	-10.8413
▁günümüze	-10.8413
▁şahit	-10.8414
▁paralar	-10.8415
ence	-10.8415
▁Devletleri	-10.8415
▁etmeyin	-10.8417
▁Finans	-10.8419
▁tamamlandı	-10.842
▁katkısı	-10.8421
▁başvur	-10.8421
miştim	-10.8424
▁anlamıyla	-10.8424
▁SGK	-10.8425
▁karış	-10.8429
▁aklı	-10.8431
▁İslami	-10.8432
▁800	-10.8432
AZ	-10.8432
▁sınırsız	-10.8433
▁partisi	-10.8433
▁felsefe	-10.8434
▁ederse	-10.8435
▁facebook	-10.8436
dos	-10.8439
ub	-10.844
▁Olan	-10.8442
▁ayrıntı	-10.8444
Su	-10.8444
▁arkadaşlarım	-10.8448
▁onarım	-10.8449
▁Erzincan	-10.845
▁kartları	-10.8451
▁Plus	-10.8451
▁Polonya	-10.8454
▁kaleci	-10.8454
istik	-10.8456
kale	-10.8458
▁Cemal	-10.8459
▁Nevşehir	-10.8461
▁Sesli	-10.8461
lma	-10.8464
▁fil	-10.8464
▁Tatlı	-10.8466
▁Real	-10.8466
▁Denetim	-10.8468
▁Arkadaşlar	-10.8468
▁Emekli	-10.8469
300	-10.8469
▁hayali	-10.847
fon	-10.8473
▁Belçika	-10.8475
▁nitelik	-10.848
▁85	-10.8481
▁mod	-10.8482
▁Politika	-10.8484
▁olgu	-10.8485
▁esnek	-10.8486
mıştım	-10.8487
▁destekleme	-10.8491
▁düşmesi	-10.8492
▁YA	-10.8493
▁AD	-10.8493
▁öncelik	-10.8496
▁Geliştirme	-10.8496
▁çağdaş	-10.8496
mediği	-10.8497
▁hatırla	-10.8497
▁Com	-10.8497
▁Dili	-10.8498
▁tıklayınız	-10.8498
▁bilinç	-10.85
▁göreceksiniz	-10.8503
▁Hisse	-10.8503
KE	-10.8504
▁etkileyici	-10.8505
▁Poker	-10.8507
:49	-10.8507
kap	-10.8507
▁dükkan	-10.8508
mat	-10.851
Ama	-10.851
▁kova	-10.851
▁söyleyerek	-10.8513
▁balkon	-10.8513
bek	-10.8515
▁Demirtaş	-10.8515
▁birikim	-10.8517
▁bağlan	-10.8517
meleri	-10.8518
▁yatırımları	-10.8518
▁geçirildi	-10.8519
▁bakar	-10.8522
IP	-10.8523
lısınız	-10.8524
▁çorba	-10.8525
▁kolaydır	-10.8527
likte	-10.8529
▁ilde	-10.8532
ıyorlar	-10.8541
▁konuşmasında	-10.8542
▁ani	-10.8544
▁kıyafet	-10.8545
▁mer	-10.8547
▁İsa	-10.855
▁medeniyet	-10.8552
▁Kovid	-10.8555
▁gerçekleştiren	-10.8558
▁Milyon	-10.856
▁güzelliği	-10.8561
▁Vatan	-10.8565
▁söyleyebiliriz	-10.8565
▁gü	-10.8567
▁Dernek	-10.8567
ona	-10.8568
▁severlerin	-10.8569
▁seyir	-10.8569
ebilmesi	-10.8569
▁yayınladı	-10.8571
▁Global	-10.8571
Bugün	-10.8573
▁akraba	-10.8574
▁mülk	-10.8575
rk	-10.8577
larımızdan	-10.8577
park	-10.8577
▁bölümleri	-10.8579
▁faktör	-10.8581
▁Boy	-10.8581
▁ok	-10.8582
yordu	-10.8582
▁semt	-10.8583
▁Çağrı	-10.8584
▁sofra	-10.8588
miyoruz	-10.8588
ebiliriz	-10.859
▁noktasına	-10.8592
▁sınavı	-10.8593
▁Pandemi	-10.8594
leştirilmesi	-10.8594
▁sanık	-10.8594
▁Kahve	-10.8596
gur	-10.8599
▁tanınan	-10.8599
▁öğle	-10.86
ves	-10.8601
CH	-10.8602
saydı	-10.8602
▁Standart	-10.8603
▁ro	-10.8604
▁versiyonu	-10.8605
▁konuşmada	-10.8607
▁Kodu	-10.8609
▁kalkış	-10.861
▁Yahudi	-10.8612
▁Musa	-10.8613
▁yakında	-10.8616
▁biten	-10.8616
▁biletleri	-10.8618
▁favori	-10.8619
aba	-10.8621
▁geçin	-10.8622
OK	-10.8624
▁başkanlık	-10.8624
▁ilgilen	-10.8624
leyebilir	-10.8627
▁şekeri	-10.8628
▁hassasiyet	-10.863
win	-10.8631
way	-10.8633
▁muhabbet	-10.8634
▁gemisi	-10.8634
▁başlamadan	-10.8636
▁YER	-10.8637
▁Takip	-10.864
▁kılın	-10.8641
▁grupları	-10.8641
ring	-10.8642
ow	-10.8644
ou	-10.8644
▁taraftar	-10.8645
▁bulunmamaktadır	-10.8646
SK	-10.8646
▁Mon	-10.8648
▁kaçınılmaz	-10.8648
▁mezunu	-10.8649
▁özür	-10.8651
Şu	-10.8651
▁mücadelede	-10.8653
▁kurşun	-10.8653
▁Deri	-10.8653
▁bilinir	-10.8654
▁uy	-10.8656
▁Onların	-10.8659
uç	-10.866
▁başla	-10.8663
2018	-10.8663
▁EĞİTİM	-10.8665
▁sunulmaktadır	-10.8668
eyim	-10.867
▁kentinde	-10.8671
▁verilerine	-10.8672
▁etmenin	-10.8674
▁bilmiyor	-10.8674
▁kaybettiği	-10.8675
▁kazancı	-10.8675
▁GÜN	-10.8676
▁Televizyon	-10.8676
▁Gönder	-10.8677
▁ifadeleri	-10.8677
▁kalkınma	-10.8678
iyo	-10.8679
▁Oğuz	-10.868
▁Kale	-10.8682
▁Yağ	-10.8683
2009	-10.8684
▁muhasebe	-10.8686
▁Şi	-10.8687
ılacaktır	-10.8687
▁süreçleri	-10.8687
▁beklenti	-10.8688
▁Madrid	-10.8689
▁maçları	-10.869
İnsan	-10.8692
▁belirt	-10.8693
▁kapsayan	-10.8693
klerini	-10.8697
YO	-10.8698
▁durak	-10.8699
▁burs	-10.87
▁Nis	-10.8702
▁Kudüs	-10.8706
emeyen	-10.8706
▁opsiyonlar	-10.8708
▁tr	-10.8708
▁faaliyetlerini	-10.8708
▁paylaştığı	-10.8709
▁satılan	-10.8711
meyin	-10.8718
gg	-10.8719
▁far	-10.8719
▁Hep	-10.8719
▁hesaba	-10.872
▁Çeşitli	-10.872
▁Umut	-10.8722
▁Şiir	-10.8724
▁büyüyen	-10.8725
leştirmek	-10.8726
▁Çakır	-10.8727
▁YAP	-10.8727
▁yolun	-10.8727
HAN	-10.8727
▁birtakım	-10.8727
▁2019,	-10.8729
▁faaliyetler	-10.873
▁yıkan	-10.8731
TIR	-10.8731
▁Zeynep	-10.8734
▁Gra	-10.8735
▁Edebiyat	-10.8739
▁oluşmaktadır	-10.8739
▁tarihten	-10.8741
▁istemiyor	-10.8742
▁çekilen	-10.8742
▁kitabın	-10.8744
ebe	-10.8745
turk	-10.8745
▁bot	-10.8747
▁verirken	-10.8751
▁AVM	-10.8751
▁değerlendirmesi	-10.8752
ld	-10.8756
▁renkleri	-10.8757
▁Sim	-10.876
▁ettiğim	-10.876
Fa	-10.876
▁Ünal	-10.8765
▁laboratuvar	-10.8766
▁düzeyinde	-10.8766
▁etmedi	-10.8771
▁parçalar	-10.8772
▁ötesinde	-10.8773
lıktan	-10.8777
▁okulun	-10.8777
▁getirecek	-10.8779
▁nice	-10.8779
▁tamamlama	-10.8781
▁Brezilya	-10.8782
-11	-10.8783
▁başlıca	-10.8783
hem	-10.8786
TV	-10.8791
ABD	-10.8793
▁istisna	-10.8793
▁Dur	-10.8797
▁gerçekleşecek	-10.88
▁Tokat	-10.88
gov	-10.8802
▁Türkler	-10.8802
▁pamuk	-10.8807
▁yoğunluğu	-10.8809
▁Belgesi	-10.881
▁ikiye	-10.881
▁sağlanır	-10.8811
▁lif	-10.8811
▁takı	-10.8812
▁Ruh	-10.8813
▁Sonrasında	-10.8814
▁paylaşma	-10.8815
larsa	-10.8816
▁başlattığı	-10.8817
▁annem	-10.8818
▁Ac	-10.882
▁katılımıyla	-10.882
▁işkence	-10.8822
▁açığa	-10.8823
▁Pen	-10.8824
▁hain	-10.8824
▁Super	-10.8825
▁belirlenir	-10.8827
▁kiralık	-10.883
▁düşünmek	-10.8831
▁makul	-10.8831
▁fiyatlarla	-10.8833
▁geçmişte	-10.8834
▁plaj	-10.8836
▁57	-10.8839
▁resimleri	-10.884
▁İnceleme	-10.8841
kul	-10.8841
▁Türkmen	-10.8845
▁Piyasası	-10.8846
▁uygundur	-10.8846
▁bakiye	-10.8847
▁tarama	-10.8853
▁Tar	-10.8856
▁çıkmaya	-10.8858
▁mantık	-10.8858
▁saçma	-10.8863
▁helikopter	-10.8863
eceğim	-10.8865
▁Hakkari	-10.8867
▁İstiklal	-10.8868
▁aktaran	-10.8869
▁başladığını	-10.887
▁çadır	-10.8871
▁Kızılay	-10.8872
▁Sur	-10.8872
▁cebi	-10.8872
▁Kaş	-10.8872
▁vatandaşın	-10.8873
▁kesinti	-10.8875
▁matematik	-10.8876
▁uzanan	-10.8878
▁besinler	-10.888
▁Rektör	-10.8881
▁netice	-10.8882
▁kenti	-10.8882
▁görüntüsü	-10.8884
Kara	-10.8885
▁yöneticisi	-10.889
sindeki	-10.889
cha	-10.889
dr	-10.8891
▁bedeni	-10.8891
▁kısmına	-10.8892
▁tesisleri	-10.8893
ürü	-10.8894
▁instagram	-10.8894
▁füze	-10.8895
Net	-10.89
▁Haftası	-10.8901
▁zirve	-10.8902
▁destekler	-10.8902
▁sigortası	-10.8903
my	-10.8904
▁ailesinin	-10.8904
▁işlemlerinde	-10.8904
▁gittim	-10.8905
▁Sha	-10.8906
▁götür	-10.8906
▁Selam	-10.8908
▁Düş	-10.8908
▁tarihlerinde	-10.8908
▁günümüz	-10.8909
▁durumları	-10.891
▁bırakmak	-10.891
▁akış	-10.8913
▁mes	-10.8914
▁Mil	-10.8915
▁ş	-10.8916
▁sağlayarak	-10.8917
SEL	-10.8921
vel	-10.8923
▁yazmış	-10.8923
▁işsizlik	-10.8925
dük	-10.8926
▁madalya	-10.8927
▁Yüce	-10.8927
▁adil	-10.8928
▁gerçekleşmesi	-10.8928
▁önünü	-10.8929
mut	-10.8929
lisiniz	-10.8932
DO	-10.8932
▁yem	-10.8933
▁fakir	-10.8933
jo	-10.8934
▁Sizler	-10.8935
▁adayları	-10.8938
▁uzmanlar	-10.8939
▁videoları	-10.8941
▁bağışıklık	-10.8942
▁Kanunun	-10.8943
▁iğne	-10.8944
▁LED	-10.895
▁yıldızı	-10.8951
▁üretme	-10.8951
dra	-10.8951
▁tabanı	-10.8956
▁paranın	-10.896
▁gu	-10.8961
▁edilecektir	-10.8961
▁va	-10.8962
▁düşer	-10.8967
▁Aşı	-10.897
▁değerlendirmek	-10.897
▁oyunda	-10.8973
▁Beğen	-10.8973
▁etsin	-10.8974
▁alınmıştır	-10.8978
▁olduktan	-10.8978
▁fikirleri	-10.8978
▁sisteminde	-10.8979
▁dizayn	-10.8979
▁coğrafya	-10.898
▁Ker	-10.8983
html	-10.8984
▁litre	-10.8984
▁Pu	-10.8984
▁ağacı	-10.8985
▁Hac	-10.8987
▁içerikleri	-10.8987
▁dk	-10.8989
ön	-10.899
▁anlatmak	-10.8991
▁are	-10.8991
doğan	-10.8991
▁döneme	-10.8992
▁çıkardığı	-10.8992
▁cihazları	-10.8993
▁müslüman	-10.8994
▁dayanan	-10.8994
▁mesajları	-10.8994
▁villa	-10.8995
acı	-10.8995
▁hatası	-10.8996
▁hijyen	-10.8997
muzun	-10.8999
INDA	-10.9
▁hayatının	-10.9001
▁sıralama	-10.9003
▁global	-10.9006
/2	-10.901
▁öğretmenler	-10.9011
▁pop	-10.9013
▁Şey	-10.9015
BB	-10.9015
▁tuttu	-10.9015
▁derhal	-10.9015
!!!	-10.9015
pen	-10.9017
hak	-10.9017
▁değişir	-10.9018
rd	-10.9019
▁çıkarılması	-10.9019
▁başlayarak	-10.9019
▁internette	-10.9024
AŞ	-10.9025
▁gelmek	-10.9026
line	-10.903
kov	-10.9032
ışık	-10.9033
▁Paket	-10.9035
amıyorum	-10.9037
▁aydır	-10.9038
▁kayıtları	-10.9038
▁atın	-10.9039
▁ı	-10.9039
▁Malzeme	-10.904
▁uçağı	-10.9041
▁cevabını	-10.9042
▁buluyor	-10.9042
▁aşık	-10.9042
▁İster	-10.9042
ASI	-10.9043
▁hatır	-10.9046
▁bahisleri	-10.9047
▁dürüst	-10.905
▁sorma	-10.9052
▁yeterlidir	-10.9058
▁İnsanların	-10.906
▁hakikat	-10.906
Be	-10.906
▁Deprem	-10.9062
▁personelin	-10.9063
▁müziği	-10.9063
▁hayati	-10.9065
▁Sivil	-10.9069
▁enfeksiyon	-10.907
▁gitmesi	-10.907
▁kral	-10.9071
▁farkındalık	-10.9072
▁gündemi	-10.9074
▁PS	-10.9076
▁koşul	-10.9077
▁Tanıtım	-10.9079
▁Zor	-10.9079
▁yuva	-10.908
▁KAL	-10.9083
▁eğilim	-10.9083
▁Kadar	-10.9084
▁diyorlar	-10.9086
2010	-10.9087
▁ithal	-10.9087
▁konumda	-10.9087
AV	-10.9089
▁duyan	-10.909
▁TR	-10.909
▁Üyelik	-10.909
▁ıs	-10.9092
malıyız	-10.9092
▁Hastalıkları	-10.9094
▁uygulanacak	-10.9095
▁atar	-10.9095
▁korunma	-10.9096
▁basınç	-10.9096
▁Dünyası	-10.9096
ie	-10.9097
▁hakkına	-10.9098
lıkta	-10.9098
▁Burcu	-10.9099
▁müracaat	-10.9103
NET	-10.9104
▁moral	-10.9104
▁dök	-10.9105
-6	-10.9106
▁sos	-10.9107
▁sezonun	-10.9109
▁insanlarla	-10.9111
▁Sert	-10.9111
▁müjde	-10.9113
▁Pri	-10.9113
▁duygusu	-10.9115
▁pasaport	-10.9116
▁Fikir	-10.9116
▁Efendimiz	-10.9117
▁Mark	-10.9117
▁sahibinin	-10.9117
▁Vekili	-10.9117
▁tutuyor	-10.9117
▁Den	-10.912
▁İste	-10.912
▁Komutanı	-10.9122
▁kelimeler	-10.9122
diye	-10.9123
▁Şeyh	-10.9123
suzluk	-10.9124
▁yurtdışında	-10.9124
▁kullanıcılarına	-10.9125
▁Popüler	-10.9126
▁Kombi	-10.9126
▁Hayal	-10.9129
▁dü	-10.913
▁içerikler	-10.9131
▁yüzyılda	-10.9131
▁Vodafone	-10.9132
▁Özkan	-10.9132
▁aşısı	-10.9133
▁temenni	-10.9136
▁tutulması	-10.9137
ıyorsunuz	-10.9138
iyordu	-10.914
▁Mert	-10.9147
▁Otobüs	-10.9149
lacak	-10.9149
▁okudu	-10.9151
uğu	-10.9151
ec	-10.9155
▁Zi	-10.9156
▁vicdan	-10.9156
▁vakıf	-10.9156
▁görevlileri	-10.9156
▁Demokrasi	-10.9157
▁fiyatlarını	-10.9157
▁meşru	-10.9158
▁dönemine	-10.9158
▁diy	-10.9161
▁üreticisi	-10.9161
iyorlar	-10.9162
▁sitesinden	-10.9163
▁vur	-10.9163
▁Kamera	-10.9164
rol	-10.9165
bon	-10.9165
▁63	-10.9165
▁örnekler	-10.9166
▁branş	-10.9166
▁öğretmeni	-10.9167
▁bağırsak	-10.9167
▁faktörler	-10.9169
▁aldıktan	-10.9169
emiyor	-10.9173
▁ürettiği	-10.9173
▁birikimi	-10.9175
▁yardımcısı	-10.9179
▁kıta	-10.918
▁hedefleri	-10.918
▁yıkım	-10.918
▁cümleler	-10.9181
tah	-10.9182
▁sigortalı	-10.9183
▁Saha	-10.9183
▁Bursaspor	-10.9183
▁Güçlü	-10.9184
▁nişan	-10.9185
▁oranla	-10.9187
▁trans	-10.9188
▁yapılmasını	-10.9192
▁kaldırmak	-10.9192
▁bıraktığı	-10.9194
▁benimle	-10.9196
▁miras	-10.9197
▁Söyle	-10.9197
▁tarihsel	-10.9197
▁yükle	-10.9198
öl	-10.9199
▁istediğimiz	-10.9199
kla	-10.9199
▁War	-10.9201
▁yarışı	-10.9202
▁Dalı	-10.9203
200	-10.9203
bü	-10.9204
atı	-10.9205
▁halini	-10.9206
▁düşüyor	-10.9208
▁cildi	-10.9209
▁birbirlerine	-10.9215
▁şampiyonluk	-10.9217
▁alındığında	-10.9218
▁adresinden	-10.9218
▁Evden	-10.9218
▁onlardan	-10.9219
▁700	-10.9223
▁çözümleri	-10.9223
▁Çal	-10.9224
▁uzan	-10.9225
muştu	-10.9225
▁yapılar	-10.9226
▁çeşidi	-10.9226
▁ilkesi	-10.9228
▁özelliğini	-10.9229
▁vasıtasıyla	-10.9229
▁kenar	-10.923
▁şeffaf	-10.9231
▁ekranı	-10.9231
ümüz	-10.9234
kış	-10.9235
▁ayın	-10.9235
▁kablosuz	-10.9237
▁Dİ	-10.9238
cil	-10.9238
▁Kav	-10.9242
▁yüreği	-10.9242
▁değişti	-10.9242
▁Rapor	-10.9244
▁sefere	-10.9245
ilmez	-10.9245
▁işçiler	-10.9245
imin	-10.9249
▁sitelerinin	-10.925
▁endeks	-10.9254
▁sürecine	-10.9255
▁Yeniden	-10.9255
▁beceri	-10.9257
tak	-10.9257
▁yaşıyoruz	-10.9258
▁Düz	-10.9259
▁kronik	-10.926
▁ihtimal	-10.9261
▁Hol	-10.9261
▁tebliğ	-10.9261
▁şeref	-10.9263
▁Arapça	-10.9265
▁58	-10.9267
▁biliniyor	-10.9271
▁simge	-10.9271
avi	-10.9272
▁leke	-10.9274
sim	-10.9276
▁Kongresi	-10.9277
▁ileride	-10.9278
▁Çavuşoğlu	-10.9279
▁malzemesi	-10.9283
▁huzurlu	-10.9285
▁Tok	-10.9287
LİĞİ	-10.9287
▁vatandaşları	-10.9287
▁faydası	-10.9287
▁baskın	-10.9289
▁sürüş	-10.929
▁yaşamaya	-10.9292
▁atıyor	-10.9293
▁atarak	-10.9294
▁arıyor	-10.9295
▁taşımak	-10.9296
▁edelim	-10.9298
▁kalmaz	-10.93
▁gerçekçi	-10.93
▁Sektör	-10.9301
▁Oyunu	-10.9301
▁Toto	-10.9302
▁Bilgiler	-10.9302
▁üretmek	-10.9304
laştı	-10.9308
▁PA	-10.9309
▁oksijen	-10.9311
▁yolla	-10.9311
▁kayded	-10.9313
▁Restoran	-10.9315
▁arıyorum	-10.9315
▁konumu	-10.9316
▁Şam	-10.9316
▁birinde	-10.9318
▁gelsin	-10.9319
▁Olarak	-10.9319
▁çarpıcı	-10.9321
▁klinik	-10.9321
▁gazi	-10.9321
▁grubun	-10.9323
▁kir	-10.9324
leşti	-10.9324
▁Sam	-10.9326
eceğine	-10.9328
▁denli	-10.9328
▁golü	-10.9329
▁ihtiyacımız	-10.9329
▁Kitabı	-10.9331
▁örgütleri	-10.9333
▁seçmek	-10.9339
▁odak	-10.9341
▁motivasyon	-10.9342
▁yürütme	-10.9343
▁ço	-10.9344
▁lazer	-10.9348
▁keskin	-10.9348
▁çeyrek	-10.9348
▁Komitesi	-10.9349
▁yoksul	-10.935
▁maddesinde	-10.9352
duğunu	-10.9355
abildiği	-10.9357
lerimizden	-10.9357
▁buhar	-10.9358
▁yaşamın	-10.9359
▁Hizmetler	-10.9363
▁Bileti	-10.9364
▁kazası	-10.9365
▁Levent	-10.9365
▁istediklerini	-10.9366
▁koyuyor	-10.9367
▁yüzme	-10.9367
▁nöbet	-10.9373
ruk	-10.9373
▁Güler	-10.9374
▁Üzerine	-10.9375
▁Sayısı	-10.9376
▁yirmi	-10.9378
▁Oy	-10.9379
2008	-10.938
▁destekleyen	-10.938
out	-10.9381
▁YIL	-10.9381
▁felaket	-10.9383
vin	-10.9385
▁Göster	-10.9385
▁öğrencinin	-10.9386
▁yapılacaktır	-10.9387
▁çözmek	-10.9387
SO	-10.9388
KAN	-10.939
▁ediyordu	-10.9393
▁idrar	-10.9393
mle	-10.9395
luğun	-10.9395
cel	-10.9396
▁kör	-10.9398
▁vermeyi	-10.9399
▁belirtiyor	-10.9399
▁öldür	-10.94
▁ÇOK	-10.94
▁montaj	-10.9401
▁Transfer	-10.9401
▁takvim	-10.9402
▁konunun	-10.9402
▁yaşı	-10.9407
▁duruşu	-10.941
Ak	-10.941
▁şifa	-10.9412
▁Tom	-10.9413
▁zorunluluğu	-10.9413
▁toprağa	-10.9414
▁Şampiyonlar	-10.9417
▁öteki	-10.9418
ple	-10.9419
▁Kulüp	-10.9419
▁2001	-10.9422
IK	-10.9422
▁Fo	-10.9424
▁sünnet	-10.9429
▁Eşya	-10.943
▁kaynaklar	-10.9432
▁kendime	-10.9432
▁çayı	-10.9432
▁nedenleri	-10.9437
tv	-10.9437
▁artırma	-10.9438
▁piyasalarda	-10.9438
▁Maden	-10.9441
ırım	-10.9441
▁taciz	-10.9442
▁nem	-10.9442
▁tarafa	-10.9445
▁uygulamayı	-10.9446
▁fırsatlar	-10.9448
▁dinle	-10.945
▁teması	-10.945
▁KARA	-10.945
▁yollarını	-10.945
▁varmış	-10.9451
▁olasılığı	-10.9452
▁takma	-10.9452
▁korkusu	-10.9453
▁Petrol	-10.9454
biz	-10.9455
▁birbirini	-10.9455
▁karşılaştırma	-10.9455
La	-10.9456
ata	-10.9457
nak	-10.9459
▁TFF	-10.9461
▁iyileştirme	-10.9462
▁Dal	-10.9463
Mİ	-10.9465
▁açın	-10.9466
▁li	-10.9466
▁rota	-10.9467
▁binası	-10.9467
▁tahta	-10.9468
eğin	-10.9469
▁Bed	-10.947
▁olurlar	-10.9471
▁kişileri	-10.9471
▁Planı	-10.9473
▁azaltmak	-10.9476
vit	-10.9476
▁EM	-10.9479
▁çekin	-10.9479
▁Pas	-10.948
▁Gre	-10.948
▁belgesel	-10.9481
▁yazıda	-10.9482
DR	-10.9483
▁saldırgan	-10.9484
▁potansiyeli	-10.9491
▁Askeri	-10.9492
lüğünü	-10.9493
▁yukarıdaki	-10.9497
▁alacağınız	-10.95
ebileceğini	-10.9501
▁Gülen	-10.9504
amp	-10.9504
▁referandum	-10.9504
▁kimler	-10.9505
▁Don	-10.9507
▁Analiz	-10.9507
▁düşüncesi	-10.951
▁bacak	-10.9511
▁ittifak	-10.9513
▁Devamı	-10.9514
▁fizik	-10.9515
▁tercüme	-10.9515
Ay	-10.9515
lamaktadır	-10.9517
▁işlev	-10.9518
leridir	-10.9519
▁yaşa	-10.9523
digi	-10.9523
▁giderilmesi	-10.9526
sit	-10.9527
▁kanaat	-10.9528
▁Soy	-10.9529
▁haliyle	-10.953
▁işlerini	-10.9531
▁direnci	-10.9534
▁tedavisinde	-10.9534
▁seçmen	-10.9535
▁gençlik	-10.9535
▁Ziya	-10.9535
▁muhalif	-10.9536
▁yarattı	-10.9538
▁katılımı	-10.9539
▁Cha	-10.954
▁Bilecik	-10.9541
▁Yerli	-10.9544
▁Bisiklet	-10.9545
▁istekleri	-10.9545
▁kademe	-10.9545
İNE	-10.9546
▁çıkaran	-10.9546
▁oluşu	-10.9547
▁kullanımına	-10.9549
▁göstererek	-10.9549
oo	-10.9552
Le	-10.9552
▁plakalı	-10.9553
amazsınız	-10.9554
▁solunum	-10.9556
▁Kıs	-10.9556
▁şuan	-10.9557
▁göstermesi	-10.9558
ışı	-10.9559
hid	-10.956
▁ileti	-10.9561
▁başrol	-10.9562
▁kapan	-10.9562
▁kaçırma	-10.9562
TU	-10.9566
▁müşteriler	-10.9568
tıcı	-10.957
▁arasındadır	-10.9573
ladığımız	-10.9576
▁bastır	-10.9576
▁Yoğun	-10.9578
▁hususlar	-10.9579
▁j	-10.9579
▁bağımlı	-10.9582
▁alıyoruz	-10.9583
▁ap	-10.9584
▁kolları	-10.9585
▁fonksiyon	-10.9586
▁konuşuyor	-10.959
▁görülebilir	-10.9591
▁boyutlu	-10.9591
▁Uşak	-10.9594
▁iddiası	-10.9596
iyi	-10.9599
▁tırnak	-10.9599
▁Roman	-10.9599
▁Klasik	-10.96
▁Karaca	-10.96
▁katıl	-10.9602
lilerin	-10.9604
ira	-10.9604
▁liralık	-10.9606
asyonu	-10.9607
▁Listesi	-10.9608
▁görmesi	-10.9612
▁gözleri	-10.9612
▁itibar	-10.9615
larıdır	-10.9615
▁atış	-10.9617
▁çeker	-10.9617
hr	-10.9618
▁düzelt	-10.9618
▁sahasında	-10.9618
arken	-10.962
▁Mc	-10.9621
▁ülkeden	-10.9622
▁ilgisini	-10.9625
▁Gümrük	-10.9625
geç	-10.9625
ırlar	-10.9626
▁tüccar	-10.9626
▁hâkim	-10.9627
▁beklentileri	-10.9629
▁mevduat	-10.9633
▁otelleri	-10.9634
▁Pınar	-10.9636
▁Kum	-10.9636
▁Kendisi	-10.9637
▁öğrencilerimiz	-10.9638
▁memleket	-10.9639
ilmektedir	-10.9642
▁Süre	-10.9642
▁zihni	-10.9643
▁hükmü	-10.9643
▁özelliklere	-10.9645
▁problemler	-10.9646
▁çıkarılan	-10.9646
▁Poli	-10.9646
▁Amaç	-10.9648
▁sevme	-10.9649
▁zanlı	-10.965
▁beklediği	-10.9652
▁ulaştığı	-10.9655
sol	-10.9656
▁karışımı	-10.9659
lıkla	-10.966
▁çe	-10.9661
▁seçildi	-10.9663
▁edilmesini	-10.9665
▁Güvenliği	-10.9668
▁Akın	-10.9669
▁elma	-10.967
▁Bilişim	-10.967
▁vermez	-10.967
fil	-10.9671
▁bilmeyen	-10.9672
lenip	-10.9673
▁aşkı	-10.9674
▁tahvil	-10.9676
göl	-10.9676
▁öğrenim	-10.9676
▁hatları	-10.9677
▁kısmen	-10.9679
med	-10.9679
▁MS	-10.968
gor	-10.968
▁Yozgat	-10.968
▁yetişkin	-10.9684
▁yazıyor	-10.9684
▁buyur	-10.9685
▁vatandaşlara	-10.9687
▁açabilir	-10.969
▁Yazdır	-10.969
amayacağı	-10.9691
▁enstrüman	-10.9691
▁1999	-10.9692
▁gör	-10.9696
▁aksiyon	-10.9696
▁diyoruz	-10.9699
back	-10.97
▁Posted	-10.9701
ğü	-10.9703
▁İndirim	-10.9703
RO	-10.9704
▁vermiyor	-10.9707
▁nitelikte	-10.9708
Çocuk	-10.9708
▁açıp	-10.9709
▁rivayet	-10.971
baz	-10.9712
▁iktidarın	-10.9712
lme	-10.9714
▁anlaş	-10.9715
▁açlık	-10.9716
▁ulus	-10.9716
▁yemin	-10.9717
imizde	-10.9717
▁Mas	-10.9717
▁pozisyonu	-10.9718
▁sinyalleri	-10.9722
▁Mİ	-10.9723
▁sağlığını	-10.9724
üt	-10.9726
▁eylemi	-10.9726
ung	-10.9727
▁insani	-10.9727
qui	-10.973
stik	-10.9732
▁satmak	-10.9733
ian	-10.9733
▁emeklilik	-10.9733
▁ısıtma	-10.9734
▁çıktığını	-10.9735
▁WordPress	-10.9737
▁işçilerin	-10.9737
▁Ayı	-10.9738
sor	-10.9739
▁sonuçlarını	-10.974
▁Huawei	-10.9742
▁Otomatik	-10.9745
▁Vatandaş	-10.9745
▁rejim	-10.9747
▁Soğuk	-10.9747
▁sevin	-10.975
▁oyuncak	-10.9752
ort	-10.9754
▁And	-10.9755
uf	-10.9755
▁gene	-10.9756
mıyorum	-10.9758
▁burası	-10.9759
▁beklet	-10.976
çılar	-10.9761
▁Boya	-10.9767
▁Çekici	-10.9768
▁yükselme	-10.9769
▁niteliğinde	-10.9769
▁formül	-10.9771
▁Hay	-10.9772
▁Kilo	-10.9773
▁Muharrem	-10.9774
▁virüsü	-10.9775
KI	-10.9776
EC	-10.9778
ınızın	-10.9779
▁CO	-10.9779
▁aktarma	-10.9781
▁kızlar	-10.9782
▁Hekim	-10.9785
▁sakinleri	-10.9787
▁diyalog	-10.9787
▁iyisi	-10.9788
▁Ayak	-10.9788
meniz	-10.9788
▁kucak	-10.9789
▁sözlü	-10.979
CO	-10.979
▁Bingöl	-10.979
▁yapılmalıdır	-10.9791
▁zararı	-10.9793
mas	-10.9795
Zİ	-10.9795
abilme	-10.9798
▁mükellef	-10.9798
▁Tercih	-10.9798
▁Etiket	-10.9799
▁ekonomisi	-10.98
▁bakır	-10.98
▁çizim	-10.9802
▁müsabaka	-10.9803
▁bilinmeyen	-10.9804
ümü	-10.9804
▁albümü	-10.9804
▁61	-10.9805
▁çıkabilir	-10.9806
▁bek	-10.9807
hisar	-10.9807
▁Sinop	-10.9807
▁helal	-10.9808
ping	-10.9809
ğını	-10.981
▁gövde	-10.981
▁zeytinyağı	-10.9812
▁gelmişti	-10.9813
▁garantisi	-10.9813
br	-10.9814
▁istasyonu	-10.9815
hit	-10.9816
▁pompa	-10.9816
Kar	-10.9816
▁Çiftçi	-10.9817
▁Geçmiş	-10.9818
▁Tablo	-10.9818
▁alkış	-10.9819
▁benzin	-10.982
▁telefonlar	-10.982
▁İpek	-10.9822
▁karışık	-10.9823
▁istemiyorum	-10.9824
▁sunma	-10.9825
▁mg	-10.9826
/3	-10.983
-20	-10.983
▁değiliz	-10.983
▁heykel	-10.983
▁küme	-10.9832
▁varan	-10.9833
▁ankara	-10.9834
▁Karabük	-10.9836
▁Artvin	-10.9836
yy	-10.9836
▁Yo	-10.9837
▁kumanda	-10.9837
▁Gebze	-10.9838
▁Siirt	-10.9838
▁belirtiliyor	-10.9842
▁ekle	-10.9846
▁bırakıp	-10.9851
▁İlişkiler	-10.9853
▁genetik	-10.9854
▁okulların	-10.9854
▁kurallarına	-10.9855
▁Lider	-10.9855
lıyorum	-10.9855
▁yaşadığımız	-10.9856
▁Uzay	-10.9857
jen	-10.9858
▁tayin	-10.986
▁imalat	-10.9861
▁Kab	-10.9862
▁istedik	-10.9862
dol	-10.9863
▁güvenliğini	-10.9863
▁iyileşme	-10.9864
▁keşfed	-10.9864
▁1-2	-10.9867
▁deplasmanda	-10.9867
▁İlaç	-10.9868
▁aralığı	-10.9868
sp	-10.9871
▁Aksaray	-10.9872
▁butonuna	-10.9872
▁Hani	-10.9873
liyim	-10.9873
Uygula	-10.9874
▁tüp	-10.9874
▁adresini	-10.9874
▁yapmanın	-10.9876
kil	-10.9879
▁çalışanı	-10.9881
▁Gemi	-10.9881
▁davranışları	-10.9881
▁şartlarda	-10.9883
▁gebelik	-10.9883
Daha	-10.9883
▁talebinde	-10.9885
▁teknikleri	-10.9886
▁bulunmayan	-10.9886
▁Katar	-10.9886
▁aya	-10.9888
Gel	-10.9888
sy	-10.9891
▁Final	-10.9891
▁yakalama	-10.9893
▁tank	-10.9894
▁Akar	-10.9894
▁başbakan	-10.9896
▁Başarılı	-10.9896
▁Yeri	-10.9904
▁Düşük	-10.9904
▁çözme	-10.9905
▁köyünde	-10.9905
ZE	-10.991
▁konforlu	-10.991
▁112	-10.991
▁yas	-10.9911
▁harca	-10.9913
▁TA	-10.9917
og	-10.9917
▁atlat	-10.9918
▁adayların	-10.9918
▁kapanış	-10.9919
ymiş	-10.992
▁havuzu	-10.992
▁eklem	-10.9922
▁Mağaza	-10.9922
▁pre	-10.9924
▁Mobilya	-10.9926
▁elden	-10.9926
▁Devamını	-10.9928
▁Teşkilatı	-10.9931
▁olabilmektedir	-10.9933
▁Rıza	-10.9933
▁Üretici	-10.9937
▁Tekrar	-10.9937
▁Fin	-10.9938
nes	-10.9938
▁Sarayı	-10.9939
▁tu	-10.994
▁edi	-10.994
tun	-10.9942
▁bilmeniz	-10.9943
mem	-10.9944
abi	-10.9944
▁Wa	-10.9945
▁Aday	-10.9947
▁sembol	-10.9947
▁Erken	-10.9948
▁oranının	-10.9948
▁koyduğu	-10.9949
▁akşamı	-10.9949
▁çalışmanın	-10.9951
▁belirlenmiş	-10.9952
▁DÜNYA	-10.9952
▁kendisinden	-10.9954
▁Option	-10.9954
▁yapabileceğiniz	-10.9955
▁Altı	-10.9955
▁katliam	-10.9956
▁Kürdistan	-10.9957
▁go	-10.9961
▁hastalıkların	-10.9962
▁dilekçe	-10.9963
▁gözle	-10.9963
▁AŞ	-10.9965
▁Arı	-10.9966
nizdeki	-10.9966
▁tedarikçi	-10.9967
ksiyon	-10.9969
▁hemde	-10.997
▁teşhis	-10.9971
▁Nuri	-10.9971
leştiği	-10.9972
▁cumhuriyet	-10.9973
UT	-10.9974
▁şah	-10.9976
▁ihbar	-10.9977
▁sokakta	-10.9977
▁Yarışma	-10.9979
-18	-10.9985
USD	-10.9985
▁toplumu	-10.9986
▁taktik	-10.9987
▁ülkesi	-10.9987
▁Th	-10.9988
ick	-10.9989
▁Kahraman	-10.999
allah	-10.9991
▁kazanım	-10.9993
▁alarm	-10.9995
▁geleni	-10.9995
▁okulda	-10.9997
▁Durumu	-10.9998
▁cazip	-10.9999
şı	-11.0002
▁OLMA	-11.0003
▁Alp	-11.0004
▁sakın	-11.0006
▁yapabilmek	-11.0006
▁Evlilik	-11.0007
▁Henüz	-11.0007
▁Büyü	-11.0009
▁uyarısı	-11.001
▁Kapalı	-11.001
▁Kötü	-11.0012
▁tartışıl	-11.0014
▁Başta	-11.0017
▁karşılama	-11.0017
▁diyecek	-11.0019
▁beklentisi	-11.0022
▁teşkilat	-11.0022
dia	-11.0025
DK	-11.0025
lerse	-11.0026
▁oruç	-11.0027
▁Saygı	-11.0027
▁yürü	-11.0028
▁vermedi	-11.0032
▁oluyoruz	-11.0033
▁başvuruları	-11.0033
▁dip	-11.0036
▁havada	-11.0037
▁akciğer	-11.0037
▁2020'	-11.0039
çiler	-11.0039
▁62	-11.0041
▁Okuma	-11.0041
▁saatler	-11.0041
-15	-11.0042
▁Değer	-11.0044
zir	-11.0047
▁zira	-11.0048
▁Albayrak	-11.0049
▁kazançlar	-11.005
▁iseniz	-11.0052
▁yürüme	-11.0053
▁müşterilerin	-11.0054
bre	-11.0055
▁tasarımcı	-11.0056
The	-11.0061
lüğe	-11.0062
KÜ	-11.0063
berg	-11.0068
El	-11.0069
▁ilçede	-11.007
▁defalarca	-11.0071
Ser	-11.0071
SAN	-11.0073
▁borçlu	-11.0073
▁işlemlerinizi	-11.0073
▁çevrim	-11.0073
▁sorularını	-11.0073
▁Bende	-11.0073
▁askerlik	-11.0074
▁gerektiğine	-11.0076
▁One	-11.0076
Ara	-11.0077
▁Ermenistan	-11.0079
▁eğitimin	-11.0079
DS	-11.0081
▁görüşmeleri	-11.0082
▁yemekleri	-11.0083
▁teori	-11.0083
▁Borç	-11.0083
▁mutfağı	-11.0084
▁hatıra	-11.0086
▁Toplu	-11.0086
▁yönetmelik	-11.0086
▁hesabına	-11.0086
▁cuma	-11.0087
REN	-11.0088
▁sevdiğim	-11.0089
▁CE	-11.0089
▁ihtiyacını	-11.0091
▁Finansal	-11.0091
▁95	-11.0092
▁düzenlenmesi	-11.0093
dow	-11.0093
ture	-11.0094
▁şiş	-11.0098
▁materyal	-11.0099
▁yargılama	-11.0099
▁Yaka	-11.0099
▁Deneme	-11.01
▁ekim	-11.0101
▁Urfa	-11.0102
▁sayın	-11.0103
▁dışarıdan	-11.0103
▁siber	-11.0104
▁durdu	-11.0105
row	-11.0105
▁Ebu	-11.0106
▁fındık	-11.0106
▁yatağı	-11.0106
▁Masa	-11.0109
▁havayolu	-11.011
▁bayrağı	-11.0111
▁dışarıda	-11.0112
SM	-11.0112
▁kökenli	-11.0112
▁III	-11.0113
▁çalışmaktadır	-11.0114
▁olmayacaktır	-11.0114
▁cihazın	-11.0117
▁kelimesi	-11.0117
▁Hat	-11.0122
▁istihbarat	-11.0123
▁Altay	-11.0124
▁çete	-11.0124
▁uzmanları	-11.0126
▁ekrana	-11.0127
▁kurtulma	-11.0128
ECEK	-11.0132
cular	-11.0132
âr	-11.0133
▁şüphesiz	-11.0133
kas	-11.0134
▁açıyor	-11.0134
▁maddesinin	-11.0135
▁hastası	-11.0135
▁tablosu	-11.014
▁artarak	-11.0144
▁maddelerin	-11.0144
▁Washington	-11.0148
▁Bedava	-11.0148
▁emre	-11.0148
off	-11.0149
▁kedi	-11.0149
▁Yolları	-11.015
TAR	-11.0151
▁67	-11.0153
▁Bütçe	-11.0153
▁yararlanmak	-11.0154
▁Hele	-11.0155
▁verdiğiniz	-11.0156
▁gelmiyor	-11.0157
▁engellemek	-11.0157
ola	-11.0157
▁fren	-11.0159
▁okudum	-11.016
▁aktör	-11.016
▁heyecanı	-11.0161
▁Ele	-11.0161
▁öğe	-11.0164
▁apartman	-11.0164
▁Umarım	-11.0166
▁ilanı	-11.0167
▁kopar	-11.0167
▁Hız	-11.0168
▁alıntı	-11.0168
TP	-11.017
liğinde	-11.017
▁2019'	-11.0171
▁World	-11.0172
▁Polat	-11.0172
ımıza	-11.0173
▁diyabet	-11.0173
▁dilerim	-11.0174
▁yapmıştır	-11.0175
▁kurtulmak	-11.0176
cim	-11.0178
▁takviye	-11.0179
▁çalışmayı	-11.018
▁yapıştır	-11.018
▁Temiz	-11.0183
▁edebilmek	-11.0184
▁hastalar	-11.0184
▁tekstil	-11.0185
▁Diyet	-11.0185
▁Portekiz	-11.0187
İYE	-11.0187
▁bakıyor	-11.0191
▁geleneği	-11.0193
▁saray	-11.0193
▁bulundukları	-11.0196
▁dönüşü	-11.0197
▁Şirketi	-11.0198
▁kür	-11.02
▁hamur	-11.0201
ney	-11.0201
-16	-11.0202
2017	-11.0203
▁yaşta	-11.0209
▁99	-11.021
▁hazırlanması	-11.0211
▁Silahlı	-11.0211
▁Mars	-11.0212
▁sistemde	-11.0212
▁Yargı	-11.0218
▁defter	-11.0219
▁kapağı	-11.022
▁başlamıştı	-11.0221
▁ortaklığı	-11.0221
▁Beslenme	-11.0223
Devlet	-11.0223
ora	-11.0225
▁görülmesi	-11.0225
▁İçinde	-11.0227
▁erişimi	-11.0229
▁konuşmak	-11.0232
▁Adayı	-11.0232
▁riskleri	-11.0233
▁arttırmak	-11.0235
▁doğrulama	-11.0236
▁meşgul	-11.0237
▁Harita	-11.0239
▁sözünü	-11.024
▁degil	-11.024
▁memnuniyet	-11.0241
▁bilgilendir	-11.0242
▁Kurtuluş	-11.0243
▁Kartı	-11.0244
▁açılacak	-11.0248
▁ambulans	-11.0249
▁başkanlığında	-11.025
İn	-11.0254
jan	-11.0254
▁Serbest	-11.0254
▁gerçekleştirdik	-11.0255
gs	-11.0256
▁tecavüz	-11.0257
▁çalışıyorum	-11.0259
▁asfalt	-11.0262
▁kına	-11.0265
▁mesajlar	-11.0267
▁kamuoyu	-11.0267
▁uygulamasını	-11.0268
▁SMS	-11.027
▁ED	-11.0271
▁birebir	-11.0271
▁İsim	-11.0271
ary	-11.0272
▁göndermek	-11.0272
▁İBB	-11.0273
▁Bul	-11.0274
▁hepimizin	-11.0274
▁hormon	-11.0274
▁tamamlayan	-11.0275
ladığınız	-11.0275
rî	-11.0279
▁iste	-11.0281
▁Siyasi	-11.0282
MASI	-11.0282
▁skor	-11.0283
tta	-11.0283
şık	-11.0283
▁hizmetini	-11.0284
▁katılacak	-11.0285
▁MI	-11.0285
▁fer	-11.0285
say	-11.0285
âh	-11.0286
▁Zeki	-11.0286
yıl	-11.0287
▁vermiştir	-11.0287
▁arayarak	-11.0287
▁tersine	-11.0288
▁edemez	-11.0289
yabilir	-11.0289
▁toplumda	-11.0289
sunda	-11.0291
▁Elif	-11.0291
▁KAR	-11.0295
▁çıkmıştır	-11.0295
▁endüstri	-11.0295
▁yağışı	-11.0297
▁verimliliği	-11.0299
▁yatan	-11.0299
▁180	-11.0302
▁dönmesi	-11.0302
▁vereceği	-11.0302
▁başlı	-11.0303
▁günlerinde	-11.0304
▁fo	-11.0304
▁Günün	-11.0306
dışı	-11.0308
▁Yarışması	-11.0309
▁Adem	-11.031
▁köklü	-11.031
laşması	-11.031
▁yepyeni	-11.031
▁yararlanma	-11.0313
▁Firmamız	-11.0316
ısı	-11.0319
Ankara	-11.032
▁kısmının	-11.0321
ding	-11.0323
▁Dekorasyon	-11.0323
▁depresyon	-11.0325
▁yi	-11.0327
▁müşterilerimiz	-11.0327
▁sitemiz	-11.0328
▁alet	-11.033
▁seçilmiş	-11.0332
▁Tarifi	-11.0332
▁yıllarca	-11.0333
cılığı	-11.0334
▁kok	-11.0334
▁taraftarı	-11.0334
▁şirketlerinin	-11.0334
▁Dis	-11.0335
▁sığın	-11.0335
rif	-11.0336
▁tahmini	-11.0337
▁nazaran	-11.0338
▁vaat	-11.0339
▁söylemişti	-11.0342
▁bakarak	-11.0342
▁Dede	-11.0342
▁Tü	-11.0342
▁kadınlara	-11.0342
▁yaptırma	-11.0343
▁batarya	-11.0344
▁duman	-11.0345
▁koleksiyon	-11.0345
▁sürme	-11.0349
▁evrensel	-11.0349
▁yüzüne	-11.0352
▁takdim	-11.0352
▁Selçuklu	-11.0353
olog	-11.0356
▁kullanılma	-11.0357
Çİ	-11.0357
▁sahası	-11.036
▁verim	-11.0361
▁Ofis	-11.0364
▁MEB	-11.0365
▁Mesut	-11.0365
lor	-11.0365
▁dakikalık	-11.0365
▁fir	-11.0367
▁ülkelere	-11.0367
▁Sayılı	-11.0368
▁boğaz	-11.0368
▁Villa	-11.0368
▁maliyetleri	-11.0369
▁sürükle	-11.0369
▁niyeti	-11.037
▁Sınavı	-11.037
▁yu	-11.0373
▁Black	-11.0376
▁yükü	-11.0376
▁etkisiz	-11.0377
▁önerisi	-11.0377
▁göl	-11.0378
old	-11.0381
▁unsurlar	-11.0381
▁bankacılık	-11.0381
▁içecek	-11.0381
▁nadir	-11.0382
▁fırça	-11.0382
now	-11.0385
▁ayarları	-11.0385
▁mutluluğu	-11.0387
▁Eylem	-11.0387
▁gerekenler	-11.0388
▁sözde	-11.0388
▁ikramiye	-11.0389
▁aynen	-11.0389
▁değ	-11.0393
▁kaldım	-11.0393
▁tezgah	-11.0396
rom	-11.0396
▁Çar	-11.0396
▁yapıyorlar	-11.0396
▁tutul	-11.0397
▁ödemek	-11.0397
resi	-11.04
▁sağlayıcı	-11.04
▁bırakan	-11.0402
▁sayısında	-11.0405
işi	-11.0405
▁yazıyı	-11.0405
seydi	-11.0406
▁Döviz	-11.0407
▁Afyon	-11.0408
iyye	-11.0409
▁Boş	-11.0409
▁yoksun	-11.0409
▁SU	-11.0412
▁oluşum	-11.0412
▁idam	-11.0413
▁Başsavcılığı	-11.0414
▁Sözcüsü	-11.0416
▁Şef	-11.0417
▁kağıdı	-11.0418
▁fiziki	-11.0419
▁hatırlatan	-11.0419
▁eşim	-11.042
mizdeki	-11.042
▁pazarı	-11.0421
▁kapsamı	-11.0424
▁oluş	-11.0427
▁yönetiminde	-11.0427
▁varken	-11.0427
▁ger	-11.0427
▁karbon	-11.0427
▁Sony	-11.0428
▁foto	-11.0429
▁Bağlantı	-11.043
emedi	-11.043
▁okuyun	-11.0431
▁mağduriyet	-11.0432
▁KAP	-11.0432
8)	-11.0433
▁kazandıran	-11.0433
▁Tavsiye	-11.0436
▁epey	-11.044
ınıza	-11.0442
▁olmayabilir	-11.0442
▁burç	-11.0447
▁içki	-11.0447
▁bazında	-11.0447
▁binanın	-11.0448
▁görüştü	-11.0452
▁Ersoy	-11.0452
▁ekipman	-11.0454
gh	-11.0454
ning	-11.0457
▁zihinsel	-11.0457
▁Üzerinde	-11.0458
undan	-11.0459
▁sanatı	-11.0461
▁kop	-11.0461
▁seçti	-11.0463
▁Vo	-11.0464
▁Mühendisliği	-11.0466
▁yönetiminin	-11.0466
▁ipuçları	-11.0467
▁sıralarında	-11.0469
▁Belli	-11.0471
▁Kaymakam	-11.0473
▁bulduk	-11.0474
▁Dan	-11.0474
▁dostluk	-11.0475
▁gözet	-11.0475
▁Ahmed	-11.0477
▁Kes	-11.0478
▁havalimanı	-11.0479
2022	-11.048
▁ayrılır	-11.0481
▁pembe	-11.0481
▁fırtına	-11.0482
▁ülkemize	-11.0482
▁Boğaz	-11.0483
▁değerlendirilme	-11.0484
▁kapattı	-11.0487
.(	-11.0489
▁BTC	-11.049
▁Temsilcisi	-11.049
▁Temizlik	-11.049
▁Gö	-11.0491
▁sorumlusu	-11.0492
▁tercihi	-11.0494
▁ışığında	-11.0495
▁istismar	-11.0496
▁okullarda	-11.0496
▁dönüyor	-11.0499
ast	-11.0499
▁kirliliği	-11.05
▁bebeği	-11.0502
▁tehlikesi	-11.0503
▁açarak	-11.0503
▁filmde	-11.0504
4)	-11.0504
▁mutlak	-11.0505
▁2'	-11.0506
▁yerleştirme	-11.0506
▁Konser	-11.0507
▁sitesini	-11.0507
▁Bilgileri	-11.0508
▁kolaylık	-11.0508
▁düzeyi	-11.0509
▁şehirler	-11.0509
▁sız	-11.051
▁gübre	-11.051
Po	-11.0511
▁köle	-11.0512
▁damga	-11.0515
▁gördüğümüz	-11.0516
▁David	-11.0516
▁vazgeçme	-11.0518
BE	-11.0519
▁Buradan	-11.0519
▁logo	-11.0519
▁kav	-11.0521
▁Sahip	-11.0521
▁ih	-11.0522
▁kömür	-11.0522
MEN	-11.0524
▁gerçekleş	-11.0524
▁kırık	-11.0527
▁azalması	-11.0528
ılacağı	-11.0528
▁tanımlama	-11.0529
▁Bilimleri	-11.053
▁yaşına	-11.053
▁indi	-11.053
▁isteriz	-11.0531
latma	-11.0533
▁tıkla	-11.0533
VE	-11.0534
▁Ürünler	-11.0535
▁linki	-11.0535
maktayız	-11.0536
▁yoğunluk	-11.0538
rus	-11.0538
▁min	-11.0539
▁çalışın	-11.054
▁Tah	-11.0541
▁Ertuğrul	-11.0542
▁Oktay	-11.0542
RS	-11.0543
▁BE	-11.0544
▁Günde	-11.0544
▁Bizi	-11.0545
▁baskısı	-11.0548
▁devrimci	-11.0548
▁Sey	-11.0552
▁ulaşabilir	-11.0552
▁ayırt	-11.0553
▁EL	-11.0555
kuş	-11.0556
▁şikâyet	-11.0556
▁sulama	-11.0558
▁MÜ	-11.0558
MS	-11.056
▁elimizden	-11.056
▁Önümüzdeki	-11.0561
▁aranan	-11.0561
vâ	-11.0561
▁tecrübesi	-11.0562
▁THY	-11.0563
▁rakamları	-11.0565
▁öngörü	-11.0567
▁Demokrat	-11.0569
▁muhtaç	-11.0571
▁hatalar	-11.0571
▁Il	-11.0573
▁şubesi	-11.0574
şit	-11.0575
▁Etkinlik	-11.0575
▁Nu	-11.0576
▁dahaki	-11.0576
▁seçimlerinde	-11.0578
▁İlhan	-11.0583
▁Önder	-11.0584
▁habere	-11.0585
▁keşif	-11.0585
▁ulaşması	-11.0589
▁kampanyaları	-11.0589
▁Win	-11.0589
tic	-11.059
Com	-11.0591
▁biyo	-11.0592
▁geliştirdiği	-11.0593
▁Alınan	-11.0596
▁Yönetmelik	-11.0597
▁Sat	-11.0599
▁telefonları	-11.06
▁Hata	-11.0601
ano	-11.0603
▁Yönetici	-11.0605
▁Kap	-11.0606
▁BA	-11.0606
▁sırasıyla	-11.0606
▁basıncı	-11.0607
▁tersi	-11.0607
▁gelecektir	-11.0607
▁miyim	-11.0608
▁olmamız	-11.061
▁iddialı	-11.061
▁kullanabileceği	-11.0611
▁suçundan	-11.0611
▁başlangıcı	-11.0613
▁serin	-11.0613
▁Şırnak	-11.0615
▁Bugüne	-11.0615
▁sürücüsü	-11.0617
▁ürünlerinin	-11.0617
▁bölgesine	-11.0618
▁59	-11.0623
▁yürüttüğü	-11.0624
▁Sonuçta	-11.0624
▁işine	-11.0624
Tek	-11.0626
▁olağan	-11.0626
▁kentsel	-11.0626
▁İlanları	-11.0626
▁ihanet	-11.0626
TİK	-11.0628
zz	-11.0628
▁büyümesi	-11.0629
▁pul	-11.0629
▁babasının	-11.0631
▁direniş	-11.0633
▁2018'	-11.0633
▁Halı	-11.0634
▁nite	-11.0635
3)	-11.0636
▁farkına	-11.0636
red	-11.0637
▁sayfaları	-11.0637
▁değerinde	-11.0638
▁masaya	-11.0641
▁taraflar	-11.0641
▁Tipi	-11.0642
▁Aslı	-11.0644
▁resimler	-11.0644
▁bölgeleri	-11.0645
ebilme	-11.0648
▁tuş	-11.0648
▁sus	-11.0649
▁Amasya	-11.065
▁Değerli	-11.065
▁bankaların	-11.0651
▁hataları	-11.0651
▁altyapısı	-11.0652
izasyon	-11.0653
▁arayın	-11.0656
▁değişiyor	-11.0658
CU	-11.0658
▁yönü	-11.0658
lanmıştı	-11.066
▁Geleneksel	-11.0662
▁aylarda	-11.0662
/10	-11.0663
▁Üsküdar	-11.0664
▁böcek	-11.0664
▁Erkan	-11.0665
lah	-11.0666
▁Bağımsız	-11.0667
Tüm	-11.0668
▁dedik	-11.0668
▁Ayhan	-11.067
emediği	-11.0671
rs	-11.0671
TER	-11.0673
▁milleti	-11.0676
▁üzüm	-11.0679
▁Sin	-11.068
▁reaksiyon	-11.0682
zaman	-11.0682
▁küfür	-11.0684
▁organları	-11.0684
▁erkeklerin	-11.0685
▁kılan	-11.0687
▁başını	-11.0688
▁%1	-11.069
▁Kod	-11.069
▁İlan	-11.069
▁Hadi	-11.0691
▁hazırlamak	-11.0691
▁ailesine	-11.0692
▁suçu	-11.0693
▁düşür	-11.0694
▁saptan	-11.0695
▁kurulumu	-11.0696
▁ala	-11.0697
▁olmaksızın	-11.0698
▁IQ	-11.07
kir	-11.07
▁Müslümanlar	-11.0701
▁Netflix	-11.0702
▁yetenek	-11.0703
▁Gal	-11.0703
▁kurallara	-11.0703
▁aralığında	-11.0704
cem	-11.0706
▁barındıran	-11.0706
eceksiniz	-11.0707
▁yılbaşı	-11.0708
▁gördüğünüz	-11.0708
▁Şiddet	-11.0711
▁toptan	-11.0713
▁Nar	-11.0716
▁adresleri	-11.0716
vr	-11.0718
▁Sık	-11.0718
▁çerçevede	-11.0718
▁ligde	-11.0719
▁fiyatının	-11.0721
▁Başkent	-11.0722
▁hemşire	-11.0723
cısı	-11.0723
▁evrak	-11.0723
vir	-11.0723
▁gelmedi	-11.0724
▁çalışarak	-11.0724
▁tanıtımı	-11.0725
▁gereğince	-11.0726
TEN	-11.0726
▁İddaa	-11.0726
▁Ödül	-11.0726
▁Yukarıdaki	-11.0727
riz	-11.0727
▁sayısız	-11.0729
ünüzü	-11.073
▁yönünden	-11.073
ril	-11.0732
▁kazanmış	-11.0732
▁Kafa	-11.0733
▁Niğde	-11.0735
▁saldırısı	-11.0736
▁Senin	-11.0736
▁yurtdışı	-11.0737
▁Şarkı	-11.0737
▁çizgisi	-11.0738
▁uyguladığı	-11.0741
tığını	-11.0742
▁3'	-11.0743
▁paneli	-11.0744
▁uzatma	-11.0744
lanmaya	-11.0746
lıların	-11.0747
box	-11.0748
▁gerçekleşir	-11.0748
▁pantolon	-11.0749
▁atak	-11.075
▁izmir	-11.075
şik	-11.0751
yap	-11.0752
▁rutin	-11.0754
▁DO	-11.0755
▁yüce	-11.0759
▁karşınıza	-11.076
▁fare	-11.076
▁korsan	-11.076
vas	-11.076
▁sesleri	-11.076
▁hay	-11.0761
▁değerlendirdi	-11.0764
▁medyum	-11.0764
▁Dere	-11.0764
▁aşan	-11.0765
Na	-11.0766
▁Şehircilik	-11.0766
▁Klima	-11.0767
▁Free	-11.0767
enler	-11.0769
▁bölümüne	-11.0769
▁Robot	-11.0769
▁mimar	-11.077
▁iyidir	-11.0772
▁buldum	-11.0772
▁bilgisini	-11.0773
▁geldim	-11.0778
▁bilgilerinizi	-11.078
▁eğilimi	-11.0783
blo	-11.0783
▁frekans	-11.0785
▁kullanıcının	-11.0786
▁okullar	-11.0787
▁ısrar	-11.0787
▁şükür	-11.0788
▁Kanser	-11.0788
▁Sahibi	-11.0789
▁ex	-11.0789
▁telefonla	-11.0792
▁Oyuncular	-11.0792
lanacağı	-11.0793
DÜ	-11.0793
▁kullanıyorum	-11.0794
▁oluşması	-11.0794
▁topluma	-11.0795
▁Yanlış	-11.0798
▁metro	-11.0799
▁Yedi	-11.0799
▁engeller	-11.0804
▁geçirilen	-11.0805
▁kullandığınız	-11.0805
▁Muş	-11.0806
▁kitapta	-11.0807
▁sağlaması	-11.0807
▁bulundurma	-11.0811
▁hesaplar	-11.0812
▁Kırşehir	-11.0812
▁anlaşılır	-11.0812
▁Trans	-11.0813
▁Kul	-11.0815
▁işletmelerin	-11.0815
ebildiği	-11.0817
▁gerektiğinde	-11.0818
▁yiyecekler	-11.0818
▁taşımaktadır	-11.0818
uma	-11.0818
▁bakanlık	-11.0821
▁emtia	-11.0821
▁kazanıyor	-11.0822
▁ni	-11.0823
▁karara	-11.0828
-25	-11.0829
▁Çerez	-11.0832
▁deneyin	-11.0832
▁Neyse	-11.0836
kes	-11.0836
▁bırakır	-11.0837
▁AT	-11.0837
▁oluştu	-11.0838
▁testleri	-11.0841
gra	-11.0842
▁korkunç	-11.0842
▁üzül	-11.0843
As	-11.0843
▁Konuşma	-11.0844
▁aklıma	-11.0844
▁babam	-11.0845
▁ameliyatı	-11.0848
▁seçimlerde	-11.0849
▁çoğal	-11.085
▁üz	-11.085
laşır	-11.0852
▁şeytan	-11.0853
▁Bakanlar	-11.0855
▁soruların	-11.0857
▁düşünceleri	-11.0857
▁:))	-11.0858
▁kuralı	-11.0859
▁olanakları	-11.086
▁Deli	-11.0861
▁karaciğer	-11.0862
lerimizle	-11.0863
▁işsiz	-11.0863
▁maça	-11.0864
▁Kemer	-11.0864
▁oyuncunun	-11.0866
▁rakamlar	-11.0869
▁Aşağıda	-11.0871
▁öğrendik	-11.0872
▁destekli	-11.0873
sch	-11.0873
▁MO	-11.0873
▁yaptılar	-11.0875
To	-11.0877
▁Ok	-11.0878
▁öldürme	-11.0879
▁belde	-11.088
▁doğrultuda	-11.0883
2016	-11.0883
▁68	-11.0883
ılmaya	-11.0884
▁ödemesi	-11.0884
▁canlandır	-11.0886
▁Pakistan	-11.0886
▁rezerv	-11.0887
▁çabası	-11.0888
▁programda	-11.0889
▁Açılış	-11.089
▁biç	-11.0891
▁zorluklar	-11.0894
▁eklenti	-11.0894
▁çocuğa	-11.0895
▁kü	-11.0897
▁Odaları	-11.0897
▁Mekan	-11.0897
▁seviyeleri	-11.0899
▁çekirdek	-11.09
▁Demek	-11.09
lığının	-11.09
lanırken	-11.0901
▁Def	-11.0901
cher	-11.0902
▁ithalat	-11.0902
▁iktidarı	-11.0902
▁Kral	-11.0903
▁usulü	-11.0903
▁düşünerek	-11.0905
uyla	-11.0909
mızla	-11.0909
▁#1	-11.0912
▁Yazıcı	-11.0913
▁torba	-11.0913
▁66	-11.0915
▁yönetme	-11.0916
▁eğitimleri	-11.0916
▁isten	-11.0917
▁ilkokul	-11.0918
▁sevgilisi	-11.0919
▁tavrı	-11.092
▁davranma	-11.0921
▁fan	-11.0921
▁çekildi	-11.0922
▁Hizmeti	-11.0922
▁grubunda	-11.0925
▁Dönüşüm	-11.0925
İB	-11.0926
▁sandık	-11.0927
▁hizmetlerin	-11.0928
hri	-11.0929
▁sezonunda	-11.0929
▁Turgut	-11.0929
▁Of	-11.093
gir	-11.0931
▁edinme	-11.0931
▁Pamuk	-11.0931
▁savun	-11.0931
▁yarısında	-11.0932
▁nüfusu	-11.0935
▁kaldık	-11.0936
▁Bırak	-11.0937
Eğer	-11.0938
larınızda	-11.0938
▁etmeyen	-11.0938
▁Kenan	-11.0938
pt	-11.094
▁duruşma	-11.0941
▁politikaları	-11.0943
▁nimet	-11.0945
▁Ex	-11.0945
▁diğerleri	-11.0946
RC	-11.0946
▁yapanlar	-11.0946
▁sunacak	-11.0946
▁şarkıcı	-11.0947
▁yaşanıyor	-11.0947
▁kulübü	-11.0948
gon	-11.0949
▁yaşanma	-11.0949
▁Alanı	-11.095
▁Fuar	-11.0951
▁korur	-11.0955
▁şunlardır	-11.0955
▁herhalde	-11.0955
▁koşullarda	-11.0961
▁TC	-11.0964
▁önlenmesi	-11.0965
▁kameralı	-11.0968
▁profili	-11.0969
GO	-11.0969
▁deyip	-11.0969
▁atmosfer	-11.0972
ZA	-11.0972
tuk	-11.0972
▁modu	-11.0973
▁koyan	-11.0973
▁Şimşek	-11.0973
▁ü	-11.0973
▁bitkisel	-11.0975
IS	-11.0975
▁Organize	-11.0977
▁görüyorum	-11.0978
ure	-11.0981
▁tapu	-11.0982
isti	-11.0983
▁vermişti	-11.0984
▁Hoş	-11.0985
▁Eli	-11.0987
▁Set	-11.0987
▁gündemde	-11.0988
raz	-11.0989
▁partinin	-11.0992
fin	-11.0994
malar	-11.0995
▁LG	-11.0996
▁evlenme	-11.0996
ladım	-11.0998
▁yürüten	-11.0998
liyiz	-11.0999
▁söyleşi	-11.0999
▁bulduğu	-11.1
▁fena	-11.1
▁taşımacılık	-11.1
▁durumdan	-11.1002
▁dere	-11.1002
▁şiiri	-11.1003
▁anılan	-11.1004
▁koalisyon	-11.1004
muzda	-11.1004
▁verecektir	-11.1005
▁Nihat	-11.1009
▁OR	-11.1009
tri	-11.1009
▁yurttaş	-11.101
▁Alın	-11.1011
▁zordur	-11.1013
▁bakteri	-11.1014
▁güvenle	-11.1015
▁işlet	-11.1016
▁oranlar	-11.1021
▁Adası	-11.1022
▁Yücel	-11.1022
▁gri	-11.1023
▁bulunarak	-11.1025
▁Biden	-11.1025
▁taşınmaz	-11.1025
▁tarafın	-11.1025
▁Edinilen	-11.1025
▁yaptırım	-11.1029
▁Mis	-11.103
▁bitkiler	-11.103
▁bulunabilir	-11.1031
▁kısıt	-11.1031
▁Düzenleme	-11.1033
▁Ste	-11.1034
ous	-11.1034
arım	-11.1035
▁kırsal	-11.1037
▁bulmanız	-11.1037
▁avukatı	-11.1037
▁rahatlat	-11.1038
▁desteğiyle	-11.1038
▁burda	-11.104
▁etkilenme	-11.104
▁Şikayet	-11.1041
meliyiz	-11.1044
▁bulabilir	-11.1045
▁koç	-11.1045
▁telefonun	-11.1045
▁sevinç	-11.1046
▁önemine	-11.1046
▁dikkatini	-11.1048
▁Plastik	-11.1049
▁Fethiye	-11.105
▁eklemek	-11.105
▁3-4	-11.1051
▁döv	-11.1052
▁bulunmadığı	-11.1052
▁türkçe	-11.1054
▁trafiği	-11.1054
▁gelmeye	-11.1055
▁yaşan	-11.1056
▁yüksektir	-11.1056
▁Yara	-11.1057
▁Mesleki	-11.1058
▁Tro	-11.1058
▁Celal	-11.106
▁%50	-11.106
lenmeye	-11.106
▁1)	-11.106
▁İddia	-11.1061
▁Bartın	-11.1062
▁Burdur	-11.1062
▁oluşturabilir	-11.1062
▁Store	-11.1063
▁Çanta	-11.1064
diğinde	-11.1066
İYOR	-11.1066
▁takıma	-11.1067
İD	-11.1067
▁Hikmet	-11.1067
▁çalma	-11.1068
yacağı	-11.1068
▁umarım	-11.1068
▁değişiklikleri	-11.1069
▁Çıkar	-11.1069
▁satışları	-11.1075
▁başlıkları	-11.1075
▁ANKARA	-11.1076
lendirilmesi	-11.1077
▁balon	-11.1077
▁Ozan	-11.1078
▁minibüs	-11.108
Bil	-11.1081
▁modül	-11.1083
▁dönüm	-11.1084
able	-11.1084
▁çekilmesi	-11.1089
▁karşıtı	-11.1089
▁fidan	-11.109
▁görecek	-11.109
▁Sigara	-11.1092
tos	-11.1092
larca	-11.1097
▁başarıya	-11.1098
▁sunuluyor	-11.1098
▁bilgisayarınız	-11.1099
MI	-11.1099
iyat	-11.11
maktır	-11.1101
▁çalıştığını	-11.1101
▁Kabul	-11.1101
▁oluşumu	-11.1103
▁Ayrı	-11.1104
▁yaralanan	-11.1107
▁ekmeği	-11.1108
▁asansör	-11.1108
▁kızım	-11.1109
madığı	-11.1109
▁sürdür	-11.1109
▁artırılması	-11.111
▁davranışlar	-11.111
▁Col	-11.1116
▁karayolu	-11.112
1)	-11.1121
▁Ayakkabı	-11.1123
irler	-11.1123
▁vizyon	-11.1124
Er	-11.1125
▁pazarında	-11.1128
▁ml	-11.1129
▁istemeyen	-11.113
▁MP	-11.1131
▁%10	-11.1133
▁bakımdan	-11.1135
▁Slot	-11.1135
LARIN	-11.1135
▁öğün	-11.1135
ÜR	-11.1136
▁kadrosu	-11.1136
▁açıktır	-11.1137
▁indirmek	-11.1138
▁sayılan	-11.1139
▁taşınması	-11.114
▁bozuk	-11.114
▁Sahil	-11.1141
sur	-11.1143
▁müşterilerimize	-11.1144
▁SPOR	-11.1145
▁çalışmalarımız	-11.1146
▁Kü	-11.1147
▁Fed	-11.115
▁Gid	-11.1151
inizde	-11.1155
Gün	-11.1155
▁ajan	-11.1156
▁bulunacak	-11.1156
▁doğumlu	-11.1156
▁çalışmalarında	-11.1158
▁İleri	-11.1158
▁Ethereum	-11.1159
▁format	-11.1161
▁çalıştık	-11.1161
▁alanındaki	-11.1162
▁hissettir	-11.1164
▁kavuş	-11.1165
▁desteğini	-11.1167
▁kasaba	-11.1168
▁rulet	-11.1172
▁kuruluşların	-11.1173
vis	-11.1174
▁VER	-11.1175
▁şimdilik	-11.1175
SP	-11.1176
▁COVID	-11.1176
▁gelenek	-11.1178
▁Akif	-11.1178
▁olursanız	-11.1178
▁mülteci	-11.1179
▁Hayatı	-11.1179
▁Kısaca	-11.118
mla	-11.1181
▁kenara	-11.1182
▁gazı	-11.1183
▁tır	-11.1184
▁eğlen	-11.1184
▁çevresi	-11.1185
▁unutulmaz	-11.1185
▁PTT	-11.1186
dınız	-11.1188
▁ibaret	-11.1197
tle	-11.1197
▁sur	-11.1199
▁eğitmen	-11.1199
▁Fon	-11.12
▁haram	-11.1201
▁duş	-11.1203
▁Üstün	-11.1204
▁konusudur	-11.1204
ımın	-11.1205
▁hatalı	-11.1207
▁sakat	-11.1208
▁arttığı	-11.1208
▁alüminyum	-11.1209
▁olmadığına	-11.1209
▁partiler	-11.1209
▁inanma	-11.1211
▁edebileceği	-11.1212
cilerin	-11.1214
sus	-11.1214
şer	-11.1214
▁anla	-11.1214
▁göstermiş	-11.1215
▁Stok	-11.1216
▁açılmış	-11.1216
▁mühendis	-11.1217
ımızda	-11.1218
▁yaptığımda	-11.122
Kendi	-11.1223
▁yakınları	-11.1223
▁İLK	-11.1225
ish	-11.1226
▁taleplerini	-11.1226
9)	-11.1229
▁kombin	-11.123
▁muamele	-11.1231
▁Yay	-11.1233
▁elinizde	-11.1234
kem	-11.1235
shi	-11.1237
▁buçuk	-11.1239
▁Seç	-11.124
▁yapmaları	-11.124
▁çıkarıldı	-11.124
▁hesabını	-11.1241
▁İS	-11.1241
▁avcı	-11.1243
In	-11.1244
▁lisanslı	-11.1245
▁TEK	-11.1246
dığında	-11.1247
▁Kariyer	-11.1247
▁cari	-11.1248
▁toprakları	-11.1249
▁gördüğüm	-11.1249
▁başlayıp	-11.125
▁yapılırken	-11.1251
▁eminim	-11.1251
▁yayınladığı	-11.1252
▁dışından	-11.1254
▁düzenleyen	-11.1254
▁hazine	-11.1254
▁gününü	-11.1256
mekteyiz	-11.1259
lk	-11.1261
▁müdürlüğü	-11.1262
▁kararın	-11.1263
▁notu	-11.1264
▁mektubu	-11.1265
▁gerekebilir	-11.1265
lantı	-11.1265
▁sürer	-11.1265
▁katman	-11.1267
▁müzakere	-11.1267
mir	-11.1268
▁ümit	-11.1271
▁eğitimler	-11.1275
▁evre	-11.1276
▁öde	-11.1277
▁ayrım	-11.1282
▁hissediyor	-11.1284
▁Faiz	-11.1285
▁bonusları	-11.1287
▁tünel	-11.1287
▁geliştirici	-11.1288
▁Lübnan	-11.1289
are	-11.1291
▁yükselmesi	-11.1292
▁köfte	-11.1293
▁tasarrufu	-11.1293
▁ARA	-11.1293
▁Buradaki	-11.1297
▁masal	-11.1297
▁amaçları	-11.1297
▁peş	-11.13
▁yapalım	-11.13
▁sabun	-11.1301
▁yemekler	-11.1301
▁kuşak	-11.1301
▁lisansı	-11.1301
▁Akşener	-11.1302
▁gitmiş	-11.1303
▁vücudu	-11.1304
▁Pir	-11.1305
▁çocuklarının	-11.1307
yel	-11.1308
lî	-11.1309
▁inşaatı	-11.1311
▁temeli	-11.1311
▁zamanın	-11.1312
▁Coin	-11.1312
▁hastalarda	-11.1313
▁neyse	-11.1314
▁ortamlarda	-11.1314
NDE	-11.1314
▁soğutma	-11.1315
Spor	-11.1316
▁Alper	-11.1318
▁Güneydoğu	-11.1318
▁Göl	-11.132
▁Alım	-11.132
▁your	-11.1321
▁öneriler	-11.1322
▁İHA	-11.1324
▁yoğurt	-11.1325
key	-11.1326
▁iştirak	-11.1327
▁yıldönümü	-11.1327
▁figür	-11.1327
üre	-11.1327
▁unsuru	-11.1328
Ek	-11.1329
▁yaşından	-11.1329
▁okun	-11.133
▁Hocam	-11.1332
▁taraflı	-11.1332
▁paraya	-11.1335
Evet	-11.1335
▁duygular	-11.1336
▁Tez	-11.1336
▁değinen	-11.1337
IC	-11.1339
▁Meksika	-11.1339
▁dünyasına	-11.134
▁sorunlara	-11.1341
▁suçlama	-11.1342
▁önleme	-11.1343
▁TUR	-11.1343
▁devi	-11.1344
acağımız	-11.1344
▁aradığı	-11.1344
▁alınma	-11.1345
▁Görüşme	-11.1346
▁Ticari	-11.1349
▁polisi	-11.1349
▁Teşekkürler	-11.1349
▁beklemek	-11.135
leşir	-11.135
▁tabanca	-11.1354
▁taşımacılığı	-11.1354
▁Yatak	-11.1355
▁Çocukların	-11.1356
▁beklen	-11.1356
şir	-11.1356
▁becerileri	-11.1365
▁ferah	-11.1366
tıkları	-11.1372
medim	-11.1374
▁komut	-11.1374
▁Operasyon	-11.1374
▁sayısına	-11.1374
▁geçtikçe	-11.1376
▁kalitede	-11.1376
▁kullanımını	-11.1378
▁örtü	-11.138
▁Müze	-11.1381
LAY	-11.1382
▁ruhsat	-11.1382
▁Tatar	-11.1386
▁içten	-11.1387
▁dayanarak	-11.1389
▁önündeki	-11.1391
elli	-11.1392
▁Gönül	-11.1392
▁gösterebilir	-11.1393
▁ülkelerinde	-11.1394
gaz	-11.1395
ladığını	-11.1395
▁ruhsal	-11.1396
üf	-11.1398
▁açıklayan	-11.1398
▁Kursu	-11.1399
▁oğlum	-11.1401
▁masum	-11.1401
▁dizinin	-11.1403
fat	-11.1405
▁Serkan	-11.1405
İlk	-11.1406
▁yönündeki	-11.1407
▁komik	-11.1407
▁bütçesi	-11.1408
▁yatay	-11.1408
▁grev	-11.1409
▁belirler	-11.1409
▁Acı	-11.1411
▁sesini	-11.1411
▁Demirel	-11.1412
LERİN	-11.1412
▁güler	-11.1415
ök	-11.1416
▁Derin	-11.1416
▁arayışı	-11.1417
▁Gazeteci	-11.1418
▁Robert	-11.1419
▁alanın	-11.1419
yacaktır	-11.1421
▁uygulamanın	-11.1422
▁Mes	-11.1423
▁Evren	-11.1424
▁zayıflama	-11.1426
▁Kullanıcılar	-11.1429
▁start	-11.1431
emeyecek	-11.1433
▁yetiş	-11.1433
▁farklılıklar	-11.1434
▁kentte	-11.1434
▁gidin	-11.1435
cağı	-11.1435
▁tarayıcıya	-11.1435
▁çılgın	-11.1437
▁şeklindeki	-11.1443
xbet	-11.1444
▁Üyeleri	-11.1444
▁Trend	-11.1445
▁2017'	-11.1445
▁Berk	-11.1445
▁katında	-11.1449
lanmak	-11.1451
▁bitirdi	-11.1451
▁kararının	-11.1452
▁konulara	-11.1455
tırma	-11.1456
sul	-11.1456
▁görüp	-11.1458
▁kızın	-11.1459
BO	-11.1459
▁All	-11.1459
▁sahiplerinin	-11.1461
▁talimat	-11.1465
Benim	-11.1466
▁CD	-11.1466
▁PDF	-11.1467
▁sınava	-11.1468
▁doldur	-11.1468
▁görüntüleme	-11.1468
Mi	-11.1469
▁İhsan	-11.1469
▁play	-11.147
▁ödenmesi	-11.1473
▁5-	-11.1474
▁silme	-11.148
▁arşiv	-11.1483
▁Çağ	-11.1484
▁seviyor	-11.1484
iv	-11.1485
▁anlatır	-11.1485
▁Puan	-11.1488
▁piyasalarında	-11.1488
RU	-11.1488
▁özenle	-11.1489
kitap	-11.149
▁geçtiğini	-11.149
viz	-11.1493
▁ırk	-11.1494
▁anahtarı	-11.1496
▁Tekno	-11.1496
▁yapabileceği	-11.1498
▁afet	-11.1498
▁yapısını	-11.1498
▁ayına	-11.15
Ku	-11.1502
▁isti	-11.1502
landırılması	-11.1503
▁iniş	-11.1504
▁nasip	-11.1505
▁perakende	-11.1506
▁hukuku	-11.1509
sif	-11.151
▁Melek	-11.151
▁Paul	-11.151
▁söyledikleri	-11.151
▁altından	-11.1511
tas	-11.1511
▁Volkan	-11.1511
▁isminin	-11.1512
▁hacim	-11.1513
tus	-11.1514
▁oynanacak	-11.1515
▁havaalanı	-11.1517
SPOR	-11.1517
tiv	-11.1517
▁muh	-11.1518
▁Güvenli	-11.1519
▁oranını	-11.152
▁olduğunuzu	-11.1522
▁tasarımları	-11.1522
▁sahaya	-11.1523
▁çalışmalarda	-11.1524
▁ayırma	-11.1525
▁Yüzde	-11.1526
▁etek	-11.1526
▁mez	-11.1528
▁ri	-11.1532
▁seçeneğini	-11.1533
▁kadarıyla	-11.1533
▁durumdur	-11.1535
▁dağıtımı	-11.1536
▁finansman	-11.154
▁uyandır	-11.1541
▁Öğretmenler	-11.1541
▁Karşıyaka	-11.1542
▁sonuca	-11.1543
▁yanınızda	-11.1543
▁okumaya	-11.1543
ulan	-11.1543
▁kalmaya	-11.1543
▁Saldırı	-11.1546
▁Yat	-11.1547
▁Makale	-11.1548
▁Lirası	-11.1549
▁mısınız	-11.155
▁kamerası	-11.155
▁aileler	-11.1551
▁sahiplerine	-11.1551
▁Doları	-11.1552
▁Ücret	-11.1552
▁kodları	-11.1552
▁meş	-11.1552
▁çalıştım	-11.1552
▁Herkesin	-11.1553
▁Köprüsü	-11.1553
▁temelinde	-11.1555
▁ceviz	-11.1555
▁yet	-11.1556
▁Show	-11.1556
▁kaçan	-11.1557
▁2.5	-11.1557
▁dudak	-11.1557
▁Matematik	-11.1558
▁Ekle	-11.156
▁pis	-11.1561
▁nikah	-11.1561
▁seksi	-11.1561
▁Yön	-11.1562
▁Alma	-11.1562
▁Gazeteciler	-11.1563
▁klavye	-11.1564
▁dolaylı	-11.1565
▁saklı	-11.1566
▁Genelkurmay	-11.1568
▁faaliyeti	-11.1568
▁eskiden	-11.1568
▁kapanma	-11.1569
▁mekanik	-11.1571
▁ortalaması	-11.1571
daha	-11.1572
NG	-11.1573
▁yürüt	-11.1573
▁Bilimler	-11.1574
▁iradesi	-11.1576
Ke	-11.1578
▁full	-11.1578
▁Harika	-11.1579
▁etmelisiniz	-11.158
▁sunulacak	-11.158
▁kriterleri	-11.1581
tuğ	-11.1582
ance	-11.1582
▁Yardımcı	-11.1586
▁götürül	-11.1586
▁tenis	-11.1587
▁Kom	-11.1588
▁Mus	-11.159
▁Asıl	-11.1591
▁etkilenen	-11.1592
▁Değil	-11.1593
▁geçirilmesi	-11.1594
Kadın	-11.1594
▁irtibat	-11.1595
▁ze	-11.1597
▁mensupları	-11.1597
▁boyutları	-11.1597
▁Ltd	-11.16
▁Gri	-11.16
▁hissedil	-11.16
▁kanama	-11.16
▁bağlama	-11.1601
▁karı	-11.1601
▁süreleri	-11.1603
ılım	-11.1604
lanmasını	-11.1606
▁oluşma	-11.1608
DP	-11.1609
▁etrafı	-11.161
▁koyar	-11.1611
▁İmparatorluğu	-11.1612
hur	-11.1612
tip	-11.1613
▁kaldığını	-11.1614
dıkça	-11.1614
▁Akademisi	-11.1614
ılmaz	-11.1615
▁kadınları	-11.1616
▁geçirdik	-11.1622
INI	-11.1623
▁Ortalama	-11.1624
▁iddiaları	-11.1625
▁anlattığı	-11.1627
▁Hukuku	-11.1628
▁oteller	-11.1629
▁TSK	-11.163
▁Yeter	-11.163
▁indirimi	-11.1631
▁yapmıştı	-11.1631
iti	-11.1633
ction	-11.1634
Der	-11.1634
yurt	-11.1636
▁Zeytin	-11.1636
▁Körfez	-11.1637
tmek	-11.1637
▁saatlerde	-11.164
▁Nerede	-11.1645
ero	-11.1645
dikçe	-11.1645
▁olduğumuzu	-11.1646
▁sponsor	-11.1646
▁tüy	-11.1646
▁Kullanımı	-11.1647
py	-11.1648
▁teşkilatı	-11.1649
▁işlerin	-11.165
▁Maske	-11.1651
▁görüşleri	-11.1652
▁çocuklarda	-11.1656
▁markalar	-11.1658
▁geçebilirsiniz	-11.1658
·	-11.1658
Ey	-11.166
▁çeşitliliği	-11.166
▁Grafik	-11.1661
▁oldular	-11.1663
▁Korku	-11.1665
pat	-11.1665
▁tüccarlar	-11.1666
râ	-11.1666
▁alınabilir	-11.1668
▁birçoğu	-11.1668
lerinizde	-11.1671
▁konak	-11.1672
▁büyüsü	-11.1672
INA	-11.1676
▁derinlik	-11.1677
BS	-11.1678
rid	-11.1679
▁Op	-11.1679
▁Pre	-11.168
▁otomotiv	-11.168
lendiğini	-11.1681
▁Bor	-11.1681
▁yapmakta	-11.1682
▁beyni	-11.1682
▁takımları	-11.1683
▁fakülte	-11.1684
▁sabır	-11.1685
▁kusur	-11.1685
▁Dini	-11.1686
▁üretiminde	-11.1687
▁Ulaştırma	-11.1687
▁kullanması	-11.169
▁halkına	-11.169
▁Şerif	-11.169
▁görevden	-11.1691
▁ocağı	-11.1693
▁TOKİ	-11.1694
▁uygulamak	-11.1694
▁oynar	-11.1696
▁Basit	-11.1697
zik	-11.1697
▁dolgu	-11.17
sir	-11.17
▁rahatsızlığı	-11.17
▁hücum	-11.1703
▁yapıları	-11.1705
▁Donald	-11.1706
▁şoför	-11.1707
▁sözlük	-11.1707
▁car	-11.171
▁flaş	-11.1711
▁Strateji	-11.1712
▁yazarak	-11.1712
öğretim	-11.1713
Yİ	-11.1713
gat	-11.1714
▁duyu	-11.1715
▁dergisi	-11.1716
▁rakipleri	-11.1716
TSO	-11.1717
▁Yarı	-11.1717
▁RA	-11.1718
▁Yük	-11.1719
▁KOBİ	-11.172
▁çekimi	-11.172
▁yenilgi	-11.1726
▁ertesi	-11.1727
▁tava	-11.1728
âb	-11.1729
mışlardır	-11.173
▁emekçi	-11.1731
▁ilişkilerin	-11.1731
▁sim	-11.1731
▁Bitlis	-11.1733
AYI	-11.1734
cre	-11.1736
▁dolap	-11.1736
▁Bro	-11.1736
2007	-11.1737
▁komutan	-11.1738
▁gözaltı	-11.1739
masının	-11.1739
▁atıldı	-11.174
▁ayakları	-11.174
▁karşılaştı	-11.1741
▁Uzmanlar	-11.1742
▁çalışmada	-11.1742
▁konusuna	-11.1745
▁acele	-11.1746
▁mekanizma	-11.1746
▁edebiyatı	-11.1747
gli	-11.1747
▁istiyorlar	-11.1751
▁topladı	-11.1751
▁salonunda	-11.1751
▁cihazların	-11.1752
▁uzaklaş	-11.1754
▁Emine	-11.1755
▁Kırım	-11.1756
▁göstermeye	-11.1758
▁başlatıldı	-11.176
sinler	-11.1761
▁çevril	-11.1761
▁Yüzyıl	-11.1761
▁elemanları	-11.1762
▁neyi	-11.1762
ildiğini	-11.1762
ug	-11.1763
▁ödemeleri	-11.1763
▁Akademi	-11.1764
▁GENEL	-11.1765
▁Yıllık	-11.1767
rad	-11.1771
▁Hint	-11.1771
ırsa	-11.1772
▁hızlıca	-11.1773
ref	-11.1775
▁Ağa	-11.1775
ülen	-11.1776
▁saklama	-11.1776
▁giyen	-11.1778
OT	-11.1779
▁gittik	-11.1779
▁piyasaları	-11.178
VA	-11.1781
▁aileleri	-11.1782
▁PE	-11.1783
▁poşet	-11.1785
cell	-11.1785
▁kulübün	-11.1786
▁yuvarlak	-11.1789
▁birisidir	-11.179
▁organizasyonu	-11.1791
▁basamak	-11.1793
pon	-11.1794
▁Tim	-11.1795
▁programa	-11.1796
▁satma	-11.1797
▁tri	-11.1797
▁Birlikte	-11.1798
▁İL	-11.1798
▁farklıdır	-11.1799
nüz	-11.1799
▁abla	-11.18
▁konsept	-11.1802
▁oluşturdu	-11.1802
Bizim	-11.1804
▁Ten	-11.1806
▁bölme	-11.1806
▁karışım	-11.1809
ox	-11.1809
▁tarımsal	-11.1812
▁bölümünden	-11.1812
▁Görüş	-11.1813
▁güveni	-11.1813
dâ	-11.1813
▁bankası	-11.1813
▁Internet	-11.1815
▁ülkelerden	-11.1816
▁başkanlığı	-11.1818
▁olanlara	-11.1822
ign	-11.1822
ayet	-11.1823
▁doküman	-11.1824
▁etmeli	-11.1827
▁izah	-11.1828
▁Endeksi	-11.1829
▁tansiyon	-11.183
▁konusunu	-11.183
▁yazmaya	-11.1831
▁hele	-11.1831
▁başlayın	-11.1833
▁yaşayacağı	-11.1833
▁Dayanışma	-11.1834
▁TO	-11.1834
▁Bets	-11.1835
▁kirli	-11.1837
liğinden	-11.1839
▁hayvanların	-11.1839
▁kendim	-11.1839
▁yapmaz	-11.1839
▁kurulmuştur	-11.184
▁kullanıcısı	-11.1841
▁çarptı	-11.1842
▁Taksim	-11.1843
sky	-11.1845
▁2)	-11.1845
▁lens	-11.1849
ska	-11.1849
▁duyul	-11.1851
rey	-11.1851
▁parsel	-11.1853
▁sik	-11.1854
▁Gümüşhane	-11.1855
▁taşıdığı	-11.1857
erik	-11.1857
▁davanın	-11.1857
▁fiyatlarının	-11.1858
▁ayrıntıları	-11.1861
▁Asker	-11.1861
▁çiğ	-11.1862
▁devamında	-11.1864
▁kazanacak	-11.1866
▁trilyon	-11.1867
▁yanındaki	-11.1868
▁Maltepe	-11.1868
▁aramak	-11.187
▁seyred	-11.1872
▁Hesabı	-11.1875
diniz	-11.1876
▁um	-11.1878
▁başlarında	-11.1879
▁akın	-11.188
▁almıştı	-11.1881
▁belirtme	-11.1883
▁olabilmek	-11.1883
▁belirsiz	-11.1883
ound	-11.1883
▁doldurul	-11.1884
▁hırsız	-11.1885
▁kâ	-11.1885
▁edilmesine	-11.1885
▁Kel	-11.1887
▁gizlilik	-11.1887
▁kazanmaya	-11.1887
SAL	-11.1888
▁Abi	-11.1889
▁amel	-11.1889
▁arttırma	-11.189
▁bahane	-11.1891
▁aramızda	-11.1892
▁öneririz	-11.1895
▁platformları	-11.1895
▁Kaba	-11.1895
▁Kimdir	-11.1897
▁ayağa	-11.1898
5.000	-11.1898
▁düşürme	-11.19
▁mart	-11.19
▁iPad	-11.1903
▁gelirse	-11.1903
▁Yönetmeliği	-11.1903
▁teknolojinin	-11.1905
▁teyit	-11.1907
▁maddenin	-11.1907
▁imkân	-11.1908
usu	-11.1909
▁sek	-11.1911
▁bazlı	-11.1912
▁lojistik	-11.1913
▁Afyonkarahisar	-11.1914
mine	-11.1915
▁hac	-11.1917
▁oluruz	-11.1917
▁Des	-11.1917
▁Shi	-11.1919
▁kalmadan	-11.192
▁poz	-11.1922
▁Yapımı	-11.1924
und	-11.1925
▁Pil	-11.1925
metre	-11.1926
bl	-11.1929
▁numaraları	-11.193
▁Divan	-11.193
▁hırsızlık	-11.193
▁Bilet	-11.1932
▁masraf	-11.1932
▁seçimler	-11.1932
▁röportaj	-11.1933
▁kullanmanız	-11.1933
▁Yağmur	-11.1933
▁götürdü	-11.1933
▁krizin	-11.1934
▁hedefliyor	-11.1934
▁Hala	-11.1936
▁yapılandırma	-11.1936
▁müşterileri	-11.1937
▁Beyoğlu	-11.1939
▁GÜNDEM	-11.194
▁kursları	-11.1943
▁şi	-11.1949
▁İlgi	-11.195
▁Boğaziçi	-11.195
▁yoğunlaş	-11.1953
▁Menderes	-11.1953
▁Biri	-11.1955
▁koleksiyonu	-11.1955
rc	-11.1955
▁Arif	-11.1956
▁ligin	-11.1957
▁Zengin	-11.1957
▁planlıyor	-11.1958
▁App	-11.1959
▁sonbahar	-11.196
▁tanıdığı	-11.196
▁1'	-11.196
▁kullanırken	-11.1962
▁sonuçta	-11.1963
-14	-11.1963
▁dengeli	-11.1966
▁İsmet	-11.1968
5)	-11.197
▁mevki	-11.197
aret	-11.1971
▁senesinde	-11.1972
▁çizen	-11.1973
çak	-11.1974
▁verdiler	-11.1975
▁Komisyon	-11.1976
▁Olur	-11.1977
▁gelebilecek	-11.1978
▁endüstriyel	-11.198
▁travma	-11.198
▁Çankaya	-11.198
▁büyüklüğü	-11.1982
▁oluşturmaktadır	-11.1984
▁Mur	-11.1985
▁tasarlanan	-11.1985
grafi	-11.1987
▁kabuk	-11.1988
▁uğur	-11.1988
▁İçi	-11.1989
▁yapının	-11.199
▁mana	-11.1992
work	-11.1992
▁mısır	-11.1993
▁hususunda	-11.1994
kendi	-11.1994
▁mecbur	-11.1994
▁dokunma	-11.1995
▁hizmetine	-11.1995
▁kullanacak	-11.1995
GM	-11.1995
▁Sür	-11.1996
sunun	-11.1996
▁Arda	-11.1998
▁dolaş	-11.1998
▁çıkmaz	-11.2001
▁varlığın	-11.2003
▁ulaşın	-11.2004
▁Kolları	-11.2004
▁mineral	-11.2005
▁zehir	-11.2007
▁GÜNCEL	-11.201
▁kısıtlama	-11.201
▁kast	-11.2011
▁sitelerine	-11.2013
anne	-11.2014
▁Bes	-11.2015
lamıştır	-11.2018
▁adrese	-11.2019
▁görü	-11.202
▁Ofisi	-11.2022
▁çözüme	-11.2022
▁yüzyılın	-11.2022
bes	-11.2023
tesi	-11.2023
▁çıkarken	-11.2024
medik	-11.2029
▁lehine	-11.2029
▁umudu	-11.2029
▁ekibin	-11.2029
yacağını	-11.203
▁malı	-11.2031
He	-11.2031
▁getirmiş	-11.2031
▁Sanatçı	-11.2032
okul	-11.2033
▁dönüp	-11.2033
uc	-11.2033
çay	-11.2033
▁almakta	-11.2036
osu	-11.2036
▁sağlamaya	-11.2038
-30	-11.2038
AF	-11.204
▁miktarını	-11.2041
▁topar	-11.2041
▁Düşünce	-11.2041
ışma	-11.2042
▁alınıp	-11.2042
▁verilere	-11.2042
▁cumhurbaşkanı	-11.2043
▁gıdalar	-11.2047
▁balığı	-11.2047
devlet	-11.2047
▁kulağı	-11.2048
▁eğitimini	-11.205
▁cenazesi	-11.205
▁Oldukça	-11.2051
cor	-11.2051
▁Darbe	-11.2053
▁böl	-11.2056
içi	-11.2057
EX	-11.2057
▁çalışmasını	-11.2058
▁yenilikler	-11.2058
▁olmayacağı	-11.206
▁Eser	-11.206
▁Tekin	-11.2061
▁çalışanlarının	-11.2062
▁Sami	-11.2064
▁tanınmış	-11.2065
▁Bizans	-11.2066
▁müttefik	-11.2067
▁dağılımı	-11.2068
▁Metro	-11.2069
▁harç	-11.2072
▁Sta	-11.2073
▁desteklemek	-11.2074
öğrenebilirsiniz	-11.2074
▁oyununu	-11.2075
▁piyasasının	-11.2075
▁gönderen	-11.2075
▁bulacak	-11.2075
▁Port	-11.2076
▁partner	-11.2077
ST	-11.2078
▁(%	-11.2079
▁İşin	-11.2079
▁alanların	-11.208
▁tarihini	-11.2082
▁malum	-11.2085
▁2,5	-11.2085
▁Rektörü	-11.2086
▁grupta	-11.2086
▁Altun	-11.2088
▁Sorumlu	-11.209
▁vermekte	-11.2092
lenmek	-11.2093
▁görüşlerini	-11.2095
▁77	-11.2097
▁78	-11.2097
▁kapılarını	-11.2097
▁isterse	-11.2098
▁Varlık	-11.2102
▁Yanı	-11.2103
▁tepsi	-11.2104
▁gerçekleşme	-11.2107
▁tüzel	-11.2107
▁cihazınız	-11.2108
▁savunan	-11.2109
▁yazımız	-11.2109
▁düzenlemesi	-11.211
▁şarap	-11.2111
▁bırakıldı	-11.2112
▁düşmanı	-11.2113
▁sevdikleri	-11.2113
▁ülkesinde	-11.2115
▁Sürücü	-11.2115
▁Beden	-11.2115
▁merakla	-11.2115
nuzda	-11.2115
▁bayıl	-11.2119
lmesi	-11.212
▁ic	-11.212
SH	-11.2121
▁otelde	-11.2121
şma	-11.2122
▁şanslı	-11.2124
▁projede	-11.2124
Genel	-11.2126
▁ulaşmış	-11.2127
▁ilgilendiren	-11.2129
▁(3)	-11.213
▁ekranda	-11.2131
▁uğruna	-11.2131
▁Giyim	-11.2131
▁bahsed	-11.2132
▁videolar	-11.2134
book	-11.2135
▁bulunmuyor	-11.2136
▁seviyesini	-11.2138
▁Mı	-11.2141
▁sığ	-11.2143
▁Göztepe	-11.2144
MP	-11.2144
▁üyeler	-11.2146
▁tozu	-11.2149
▁söylüyorum	-11.2149
▁çıkacağı	-11.2149
▁sunmaya	-11.215
lığında	-11.2151
ektör	-11.2151
▁kırılma	-11.2152
▁denetimi	-11.2152
▁Sorular	-11.2154
▁görüşmesi	-11.2154
▁üreticileri	-11.2154
▁Altyapı	-11.2155
▁Fabrika	-11.2155
▁kulaklık	-11.2156
▁yapıda	-11.2157
▁varlıklar	-11.2158
▁Hıristiyan	-11.2158
▁Endüstri	-11.216
▁Muhasebe	-11.2162
▁parite	-11.2162
▁iyilik	-11.2163
▁muhakkak	-11.2165
▁Dönemi	-11.2169
▁tanır	-11.2169
▁gitmeye	-11.217
▁ulaşır	-11.217
▁almasını	-11.2172
▁Eki	-11.2172
▁özetle	-11.2172
▁Trakya	-11.2172
▁â	-11.2174
▁içeriyor	-11.2175
▁yönden	-11.2175
▁Partili	-11.2177
-8	-11.2177
▁araştırması	-11.2177
▁76	-11.2178
▁sök	-11.218
ARI	-11.2185
▁Sorunu	-11.2185
▁iddiasıyla	-11.2186
▁istekli	-11.2187
▁sorulan	-11.2187
▁eğ	-11.2188
▁büro	-11.2188
▁ja	-11.2189
▁soruya	-11.2193
Or	-11.2194
▁Balkan	-11.2194
▁Filmleri	-11.2196
▁belirlediği	-11.2197
lüğün	-11.2198
▁uydur	-11.2198
▁eyalet	-11.22
▁hareketler	-11.22
▁Amatör	-11.2204
kam	-11.2204
Sağlık	-11.2205
▁etnik	-11.2206
▁indirimli	-11.2207
era	-11.2207
▁Inter	-11.2207
▁yarışması	-11.2207
vol	-11.2207
▁aslı	-11.2208
▁kendiliğinden	-11.2208
amadım	-11.2208
▁TE	-11.221
▁James	-11.221
▁fikirler	-11.2211
▁futbolcular	-11.2212
NI	-11.2212
▁telafi	-11.2213
▁You	-11.2215
▁görüntülendi	-11.2216
▁Uygulaması	-11.2219
▁nihayet	-11.222
▁misin	-11.2221
▁Platform	-11.2221
▁Merak	-11.2222
▁oynat	-11.2222
▁Nor	-11.2222
LEN	-11.2224
oş	-11.2224
kazanabilirsiniz	-11.2224
▁Mükemmel	-11.2225
▁yetenekli	-11.2226
▁BİLGİ	-11.2227
mad	-11.2227
▁konudaki	-11.2227
▁yakaladı	-11.2228
▁Note	-11.2229
▁deyişle	-11.2229
▁Uyku	-11.223
TT	-11.2231
▁şirketinin	-11.2231
▁insanlığın	-11.2232
aktif	-11.2232
▁dönemlerinde	-11.2234
▁Çinli	-11.2234
laşıyor	-11.2235
▁İklim	-11.2237
▁Teşekkür	-11.2237
▁Server	-11.2238
▁imha	-11.2238
▁vereceğiz	-11.2238
lilik	-11.2238
600	-11.224
▁baraj	-11.224
▁şeylerin	-11.224
bî	-11.2241
Avrupa	-11.2242
▁mani	-11.2243
▁110	-11.2244
▁Bosna	-11.2244
▁Kararı	-11.2244
▁yapmıyor	-11.2245
ığı	-11.2246
▁(4	-11.2247
yeceğini	-11.2247
▁Marmaris	-11.2247
▁şov	-11.2247
▁edinmek	-11.2249
▁konuların	-11.225
▁Elbise	-11.225
▁projeye	-11.2251
▁fotoğrafçı	-11.2254
▁üstelik	-11.2256
▁versin	-11.2256
▁Demokratik	-11.2256
▁soruyu	-11.2257
▁olu	-11.2257
▁psikoloji	-11.2258
▁İlişkin	-11.226
llah	-11.226
▁özelliklerine	-11.2262
▁incelemek	-11.2262
▁ünite	-11.2263
▁eşyaları	-11.2264
▁oturdu	-11.2264
▁Ultra	-11.2265
▁AC	-11.2266
▁YOK	-11.2267
▁ayrılık	-11.2268
▁çabaları	-11.227
▁önder	-11.227
▁getirmeye	-11.2271
▁birbiri	-11.2273
▁düğme	-11.2273
▁edebileceğiniz	-11.2275
▁iadesi	-11.2275
▁amatör	-11.2276
▁bilmediği	-11.2276
▁sorununu	-11.2277
▁İstatistik	-11.2278
▁1-0	-11.2279
▁benze	-11.228
▁yazıcı	-11.228
▁Çam	-11.2281
ALI	-11.2282
▁masaüstü	-11.2282
▁gar	-11.2282
KS	-11.2284
▁staj	-11.2285
irim	-11.2286
▁tıka	-11.2286
▁bı	-11.2288
▁Nüfus	-11.2288
▁suyunu	-11.2289
▁tabela	-11.2289
▁Kırıkkale	-11.2289
▁kazanması	-11.2292
▁Tunceli	-11.2296
▁yılını	-11.2296
▁operasyonda	-11.2302
▁EUR	-11.2303
▁doların	-11.2303
▁ekşi	-11.2303
▁BEN	-11.2303
▁neye	-11.2304
toloji	-11.2304
▁olduğumu	-11.2304
▁pişman	-11.2304
severler	-11.2305
▁Grand	-11.2305
▁Çankırı	-11.2306
▁Gü	-11.2306
▁izi	-11.2309
▁geçip	-11.2311
▁polisin	-11.2312
▁gürültü	-11.2312
tekin	-11.2315
▁Ercan	-11.2315
▁Gen	-11.2317
▁irtibata	-11.2317
▁başvurma	-11.2318
▁KU	-11.2318
▁anlatmaya	-11.2322
AĞI	-11.2324
lemesi	-11.2325
▁Engelli	-11.2326
▁besle	-11.2326
▁Rey	-11.2327
▁mekanizması	-11.2334
▁Cemil	-11.2335
▁sınıfta	-11.2336
▁Yılın	-11.2336
▁Tuz	-11.2336
▁dilek	-11.2337
▁piyasanın	-11.2337
▁kırma	-11.2337
▁özü	-11.234
▁Adil	-11.2342
▁Olma	-11.2344
▁Kira	-11.2347
▁Performans	-11.2347
▁GE	-11.2347
▁paylaşan	-11.2349
▁olanları	-11.235
sınlar	-11.235
fu	-11.2353
▁antik	-11.2354
deniz	-11.2354
▁esir	-11.2355
?”	-11.2355
▁Kablo	-11.2356
▁mühendislik	-11.2357
▁egemen	-11.2359
▁edebiliyor	-11.236
▁belirleyen	-11.2362
▁Marşı	-11.2362
▁eşyalar	-11.2364
▁bireyin	-11.2364
▁Ez	-11.2365
▁İttifakı	-11.2365
▁çıktık	-11.2366
▁sırrı	-11.2366
▁yetenekleri	-11.2367
▁Makinesi	-11.2369
▁Zarar	-11.237
tarak	-11.2371
/4	-11.2371
▁zihin	-11.2373
▁ab	-11.2375
▁koruyan	-11.2376
play	-11.2376
▁ivme	-11.2377
▁Ödülleri	-11.2377
▁sağlamış	-11.2377
▁tepkiler	-11.2378
▁Group	-11.2379
▁ey	-11.238
▁havale	-11.238
view	-11.2383
▁söylenen	-11.2384
▁Val	-11.2384
fak	-11.2387
▁yapılmasına	-11.2388
▁kurtarmak	-11.2388
▁Kategoriler	-11.2389
lıyım	-11.2391
▁evleri	-11.24
▁1998	-11.2401
▁Wal	-11.2401
▁tarihin	-11.2402
▁nihai	-11.2403
▁reçete	-11.2403
eg	-11.2403
▁Çeşme	-11.2403
▁fu	-11.2405
üğü	-11.2405
▁Fırsat	-11.2406
▁Yaşa	-11.2407
ıldığında	-11.2408
▁terapi	-11.2408
▁makina	-11.2409
▁puanla	-11.241
▁ti	-11.241
▁teklifleri	-11.2411
▁edersiniz	-11.2411
▁müs	-11.2412
▁Oca	-11.2412
▁Ameliyat	-11.2413
▁fal	-11.2414
▁Koleji	-11.2417
▁huzuru	-11.2419
▁panik	-11.242
▁devamını	-11.2421
▁boynu	-11.2422
▁ısıt	-11.2423
▁uzunluğu	-11.2423
▁dokusu	-11.2423
▁Meteoroloji	-11.2424
▁oyu	-11.2424
▁başladılar	-11.2424
▁Yarın	-11.2427
▁bağı	-11.2428
▁çök	-11.2428
▁hibe	-11.243
▁Ford	-11.2431
▁yazdır	-11.2431
dedi	-11.2431
▁kenarında	-11.2435
▁Şirketin	-11.2435
▁Dursun	-11.2436
▁bölgesindeki	-11.2436
▁başkent	-11.2436
▁bellek	-11.2438
▁adamlar	-11.2441
▁sorulara	-11.2441
▁yapacağını	-11.2441
▁mac	-11.2442
▁çekilmiş	-11.2443
▁yerlerinde	-11.2443
▁patent	-11.2446
▁oyunlarını	-11.2446
roz	-11.2446
▁nedenlerle	-11.2447
▁aylar	-11.2448
▁coğrafi	-11.2448
▁şehre	-11.2448
▁yaptırmak	-11.2448
▁Game	-11.2449
▁etik	-11.2449
bağ	-11.2449
▁Sahne	-11.2452
▁cildiniz	-11.2453
-7	-11.2453
▁Denizi	-11.2454
uzu	-11.2456
▁Gazze	-11.2457
▁evlat	-11.2459
▁diyebilirim	-11.246
▁sürdüğü	-11.246
▁350	-11.2461
▁ofisi	-11.2461
▁adresinde	-11.2463
▁çamur	-11.2463
▁tutarak	-11.2464
▁programını	-11.2465
▁Engelliler	-11.2466
▁araştırmaya	-11.2467
▁şekillendir	-11.2467
▁defteri	-11.2467
lemeye	-11.2468
uyoruz	-11.2472
▁Dön	-11.2473
nar	-11.2473
▁toplantıya	-11.2473
▁gereksinim	-11.2474
▁diyelim	-11.2476
insan	-11.2477
▁vücutta	-11.2477
dağı	-11.2477
▁Evli	-11.2478
▁Aktif	-11.2478
▁Etti	-11.2479
▁Ur	-11.2482
▁tutulma	-11.2482
▁otorite	-11.2483
▁edebilme	-11.2484
▁arkadaşımız	-11.2484
▁Coşkun	-11.2487
▁rehberi	-11.2487
▁besleme	-11.2487
OM	-11.2489
TB	-11.2489
▁portföy	-11.2489
▁algılama	-11.249
maması	-11.249
▁Fahrettin	-11.249
▁tribün	-11.249
▁Kesinlikle	-11.249
ýn	-11.2491
▁dönümü	-11.2492
▁almaz	-11.2492
▁Xiaomi	-11.2494
▁sevinirim	-11.2494
oyun	-11.2494
▁unsurları	-11.2495
▁konfor	-11.2495
▁verebilirsiniz	-11.2495
▁Vadisi	-11.2496
▁olduğunca	-11.2497
▁kullanıl	-11.2498
▁saldırıları	-11.2499
400	-11.2501
▁şerit	-11.2503
▁Tepe	-11.2503
eh	-11.2504
▁Korunması	-11.2505
▁sensör	-11.2505
Mar	-11.2505
▁Norveç	-11.2508
▁yaşanması	-11.2509
▁this	-11.251
▁köşesinde	-11.251
▁deposu	-11.2511
▁olmakta	-11.2513
▁hukuka	-11.2515
▁tanıyor	-11.2516
etti	-11.2516
▁kuruma	-11.2517
▁ekiplerinin	-11.2517
▁elle	-11.2517
TUR	-11.252
alt	-11.2521
▁şiddeti	-11.2522
▁Aşırı	-11.2522
▁bonuslar	-11.2524
▁Editör	-11.2526
▁sektörüne	-11.2527
▁Dua	-11.2528
▁çirkin	-11.2529
▁sözleşmeleri	-11.2529
▁Sizi	-11.253
▁hedefler	-11.253
▁aradan	-11.253
▁aksesuar	-11.253
önü	-11.2532
▁Abone	-11.2533
▁işlevi	-11.2534
▁HER	-11.2534
▁gitar	-11.2535
▁Kırklareli	-11.2536
▁pist	-11.2538
▁1.2	-11.254
▁Meral	-11.254
▁kesimi	-11.254
bah	-11.2541
▁kendinden	-11.2541
▁Eyüp	-11.2544
ÖR	-11.2546
▁kura	-11.2546
YD	-11.2548
▁yediği	-11.2548
▁gelmesini	-11.255
▁Açıklaması	-11.255
▁kapatılması	-11.2552
6)	-11.2553
▁kozmetik	-11.2554
metrik	-11.2555
▁avantajlar	-11.2555
▁parasını	-11.2556
▁Michael	-11.2557
▁alanlara	-11.2557
▁sunulması	-11.2559
▁uğrat	-11.2559
▁kuvvetleri	-11.256
▁nar	-11.256
nızla	-11.256
▁çarpı	-11.2561
▁Takı	-11.2562
leştirerek	-11.2562
eceğimiz	-11.2563
▁partilerin	-11.2563
▁değiştirilmesi	-11.2564
▁stüdyo	-11.2564
▁müte	-11.2564
▁uzlaşma	-11.2565
▁öğrendiği	-11.2567
▁vurma	-11.2567
nis	-11.2568
▁imkanlar	-11.2571
▁yöneten	-11.2574
▁dönmek	-11.2574
uru	-11.2575
orta	-11.2576
▁kitabında	-11.2576
▁büyüklüğünde	-11.2577
▁aradığınız	-11.2578
▁bekler	-11.2579
2'	-11.2579
ria	-11.2581
▁Efe	-11.2582
▁Akbank	-11.2582
▁radikal	-11.2582
▁benziyor	-11.2582
▁fiil	-11.2582
▁etmemiz	-11.2582
▁tarafların	-11.2584
▁Teknolojileri	-11.2585
hip	-11.2585
▁çocukluk	-11.2586
vil	-11.2587
▁titiz	-11.2592
TC	-11.2592
▁onar	-11.2593
▁Sitemiz	-11.2594
▁niyetli	-11.2595
▁aşağıya	-11.2597
▁Dol	-11.2598
▁süreyle	-11.2599
umuzu	-11.2602
▁73	-11.2602
▁çoğalt	-11.2603
Yıl	-11.2603
▁hedefleyen	-11.2604
end	-11.2609
▁heyecanlı	-11.2609
▁STK	-11.261
▁Stadı	-11.2611
maktan	-11.2612
▁bekle	-11.2613
▁Cap	-11.2613
▁taşıt	-11.2614
▁izler	-11.2615
far	-11.2616
▁Sene	-11.2617
▁Otelleri	-11.2618
▁alışkanlıkları	-11.2618
▁yakınında	-11.2618
▁Gizli	-11.2618
nızdaki	-11.262
▁tasarlanmıştır	-11.262
▁tuhaf	-11.2621
▁ISO	-11.2621
▁Key	-11.2622
▁içerdiği	-11.2623
▁gelişi	-11.2623
▁Zirvesi	-11.2624
doğu	-11.2624
▁Yavaş	-11.2625
▁platformda	-11.2626
▁adında	-11.2626
▁dereceye	-11.2627
▁Esen	-11.2628
▁bulup	-11.2629
▁82	-11.263
kut	-11.2631
▁Danimarka	-11.2632
▁müzisyen	-11.2632
üsü	-11.2634
▁söylem	-11.2634
▁mev	-11.2635
▁yo	-11.2635
▁incelemesi	-11.2635
▁yapılabilecek	-11.2635
▁Gold	-11.2635
▁inceledi	-11.2638
▁gösterisi	-11.2639
▁sınırlama	-11.264
▁talimatı	-11.2641
▁derim	-11.2642
BI	-11.2644
▁Sana	-11.2645
▁fazladır	-11.2646
▁Toptan	-11.2647
ERİ	-11.2647
▁sunmuş	-11.2648
▁odasında	-11.2649
▁görevine	-11.265
▁beslen	-11.2653
▁otomobilin	-11.2654
▁bebekler	-11.2655
▁tah	-11.2655
▁Tuna	-11.2656
ülmüş	-11.2656
örü	-11.2656
üldü	-11.2657
▁kriter	-11.2657
▁Yaşlı	-11.266
▁yor	-11.2661
mazsa	-11.2662
▁mil	-11.2663
▁Konak	-11.2664
▁Hattı	-11.2664
ware	-11.2666
▁port	-11.2666
▁sorumludur	-11.2668
emeyeceği	-11.267
▁programın	-11.2671
▁sıkıntılı	-11.2671
▁kavuştur	-11.2672
▁korkma	-11.2672
▁Turu	-11.2673
YAN	-11.2673
ED	-11.2673
▁Ulaşım	-11.2673
▁salata	-11.2676
▁oturuyor	-11.2676
▁69	-11.2678
▁gözüküyor	-11.2678
▁yüksel	-11.2678
▁Saadet	-11.2679
▁opsiyonu	-11.2679
▁değerlendiren	-11.2679
▁bor	-11.268
▁Yarış	-11.2681
▁Yetkili	-11.2683
▁nevi	-11.2683
▁markaların	-11.2683
▁yarıda	-11.2684
▁tutuk	-11.2685
▁poli	-11.2687
▁Peygamberimiz	-11.2687
▁lot	-11.2689
▁İşbirliği	-11.269
▁Osmaniye	-11.2691
▁tüketme	-11.2692
▁noktalar	-11.2694
kum	-11.2695
▁ederseniz	-11.2696
▁King	-11.2696
▁fiyatını	-11.2698
▁atmış	-11.2701
▁hi	-11.2703
▁ikincisi	-11.2704
▁faaliyetlerine	-11.2705
▁çatısı	-11.2705
▁Meydan	-11.2706
ctor	-11.2706
▁bakanlığı	-11.2706
-17	-11.2707
▁sindirim	-11.2709
▁alışkanlığı	-11.271
▁raporları	-11.2712
▁miydi	-11.2716
▁tarafsız	-11.2716
aka	-11.2718
▁74	-11.2719
▁Taşıma	-11.2723
▁kıs	-11.2727
▁Vücut	-11.2731
▁anlatma	-11.2732
▁88	-11.2734
▁Zorlu	-11.2735
▁2016'	-11.2735
▁koyup	-11.2736
▁Analizi	-11.2736
▁Survivor	-11.2736
▁öğretmenlerin	-11.2737
▁Duygu	-11.2737
▁kısıtlı	-11.2738
▁edilirken	-11.2738
▁Barcelona	-11.2739
▁atom	-11.2741
▁işlemin	-11.2742
▁ÖSYM	-11.2743
▁salgı	-11.2749
▁yapabilme	-11.275
▁Hakem	-11.2751
vaz	-11.2751
▁sağlanmaktadır	-11.2751
▁Kut	-11.2753
lması	-11.2754
▁Açıklamada	-11.2755
▁Kardeş	-11.2755
▁türkü	-11.2757
▁andan	-11.2757
▁zekâ	-11.2758
▁konuşulan	-11.276
▁teker	-11.276
▁saygın	-11.2761
bs	-11.2762
▁Ün	-11.2762
▁memleketi	-11.2763
▁açılışı	-11.2764
▁âlem	-11.2764
▁üyelerin	-11.2765
▁direksiyon	-11.2765
ladıkları	-11.2766
▁Sor	-11.2766
▁Milliyet	-11.2768
▁cildin	-11.2768
▁erit	-11.2768
▁teşebbüs	-11.2768
▁Prens	-11.2768
▁objektif	-11.2768
EZ	-11.2768
▁Sergi	-11.2769
▁yakalanan	-11.277
▁pirinç	-11.2772
ymış	-11.2774
▁güçlük	-11.2775
▁Filmin	-11.2775
ülü	-11.2776
▁nolu	-11.2777
▁sunumu	-11.2778
▁Adli	-11.2779
▁değerinin	-11.2779
▁sokul	-11.2781
▁kullandıkları	-11.2781
▁katılarak	-11.2782
▁Ataşehir	-11.2783
tom	-11.2784
▁Müslümanların	-11.2784
İSİ	-11.2786
▁Çınar	-11.2786
LL	-11.2788
▁yerin	-11.2789
▁bilinmesi	-11.2789
▁yerlerden	-11.279
▁isteyenlerin	-11.279
▁ÖZEL	-11.2793
▁dondurma	-11.2793
▁çevreye	-11.2797
▁doğası	-11.2797
▁130	-11.2797
▁uygulanabilir	-11.2797
▁Onay	-11.28
İNİ	-11.2802
▁kuyruk	-11.2804
▁çıkarın	-11.2804
menin	-11.2805
▁tutmaya	-11.2806
▁Binali	-11.2807
▁prosedür	-11.2809
▁Esra	-11.281
▁Telefonu	-11.281
▁eğit	-11.281
▁Tolga	-11.2811
▁GEÇ	-11.2814
▁sarma	-11.2815
▁Hamza	-11.2815
▁Meyve	-11.2815
▁seçerek	-11.2816
LARA	-11.2816
▁sormak	-11.2817
yorsunuz	-11.2818
▁belirlenmiştir	-11.2818
▁Neler	-11.2818
▁saldırıya	-11.2819
riye	-11.2819
▁rastgele	-11.282
▁derecesi	-11.282
▁Pendik	-11.282
▁Kural	-11.2822
▁taşıdı	-11.2824
▁Köprü	-11.2824
ym	-11.2825
layalım	-11.2826
▁edeceğim	-11.2826
▁gücüne	-11.2826
▁maliyetli	-11.283
▁oturup	-11.2831
▁Hastalık	-11.2835
▁adından	-11.2835
▁google	-11.2837
▁şaşırtıcı	-11.2837
▁inanıyoruz	-11.2838
▁belirtiler	-11.2838
▁takımlar	-11.284
▁dokuz	-11.2841
▁yum	-11.2841
▁İnönü	-11.2841
▁görebilir	-11.2842
▁Kök	-11.2842
▁muazzam	-11.2844
▁akımı	-11.2845
▁Kaynakları	-11.2846
▁Tamamen	-11.2847
ness	-11.2847
▁mahkemeye	-11.2848
▁sektöre	-11.2848
▁ilimiz	-11.2849
▁olunur	-11.285
▁Kalem	-11.285
get	-11.2853
▁Tesis	-11.2855
dat	-11.2855
Ad	-11.2855
▁sürülen	-11.2856
▁çıkarıyor	-11.2856
▁gözlük	-11.2858
▁Bankalar	-11.2862
▁Bireysel	-11.2863
▁kalkan	-11.2865
▁hü	-11.2867
▁incelenmesi	-11.2868
▁çiçeği	-11.2869
▁süsleme	-11.287
▁Belir	-11.2871
▁köylü	-11.2872
▁baharat	-11.2873
tech	-11.2873
▁yanma	-11.2874
▁Ant	-11.2874
▁baya	-11.2875
▁eksi	-11.2875
üdür	-11.2875
▁SP	-11.2877
▁oynamaya	-11.2878
▁yaban	-11.2878
▁ifadeler	-11.2879
▁nüfusun	-11.288
▁paketleri	-11.288
▁koşullarında	-11.2882
▁TÜ	-11.2883
▁olmamak	-11.2884
▁edilmez	-11.2884
▁döndür	-11.2885
▁levha	-11.2888
▁bırakarak	-11.2888
▁hediyeler	-11.2891
▁gun	-11.2891
uri	-11.2891
nâ	-11.2891
▁Anlat	-11.2891
▁Türklerin	-11.2891
▁tanıyan	-11.2892
▁konuşmasını	-11.2893
▁beyler	-11.2894
UŞ	-11.2897
ori	-11.29
ciliği	-11.2901
ux	-11.2901
▁Gayrimenkul	-11.2901
▁Auto	-11.2904
▁bilerek	-11.2905
▁Ajans	-11.2909
▁Bat	-11.2909
▁edileceği	-11.2909
MIŞ	-11.291
ebil	-11.291
▁aşılama	-11.2913
▁sırf	-11.2915
lock	-11.2915
▁ağlar	-11.2916
▁taşınma	-11.2917
▁Şişli	-11.2918
vu	-11.2919
▁olayda	-11.2921
▁İktidar	-11.2923
▁Ereğli	-11.2924
▁penaltı	-11.2925
▁gittikçe	-11.2927
▁romantik	-11.2929
▁yönetil	-11.2929
▁çalın	-11.293
▁Kuruluş	-11.2931
▁Yorumlar	-11.2931
DEM	-11.2933
▁yetiştirme	-11.2934
atlı	-11.2934
▁etmenizi	-11.2937
▁göstermiştir	-11.2938
▁yapmaktan	-11.2938
▁amaçlar	-11.294
▁Düşün	-11.2942
▁inanıyor	-11.2943
▁kayak	-11.2943
▁siyasetin	-11.2943
▁Katılım	-11.2944
▁güzellikleri	-11.2944
▁Erişim	-11.2945
Lo	-11.2945
▁evlerinde	-11.2945
▁hukukun	-11.2946
alp	-11.2946
▁savaşa	-11.2947
ell	-11.2947
war	-11.2949
▁Cezaevi	-11.2949
▁şiddetle	-11.295
▁Eğ	-11.295
▁nezdinde	-11.295
▁Aklı	-11.295
▁ideoloji	-11.2951
▁içeriğinde	-11.2951
▁memnuniyetini	-11.2951
▁pan	-11.2952
▁Çelebi	-11.2952
▁İspanyol	-11.2952
▁alabilmek	-11.2954
▁caiz	-11.2954
▁Yumurta	-11.2955
▁bayramı	-11.2958
▁parfüm	-11.2958
▁seviyesinin	-11.2959
LERE	-11.2959
▁Cel	-11.2959
▁salgının	-11.2961
ates	-11.2961
▁başaran	-11.2961
▁animasyon	-11.2961
▁ileriye	-11.2963
cıoğlu	-11.2963
▁maçlar	-11.2964
▁Uyarı	-11.2964
▁bozuklukları	-11.2964
▁borçlanma	-11.2966
layacağı	-11.2967
abildi	-11.2967
▁subay	-11.2967
▁Dair	-11.2969
▁Filmi	-11.2969
▁geçmeye	-11.2969
▁çıkarır	-11.2969
▁davranışı	-11.2972
fel	-11.2973
▁Manşet	-11.2976
▁Büro	-11.2977
▁yapacağım	-11.2977
▁Konusu	-11.2977
zak	-11.2979
kül	-11.2981
ünüz	-11.2981
▁saldırılar	-11.2982
▁şiirleri	-11.2982
▁Geldi	-11.2983
▁alay	-11.2983
▁arkasından	-11.2984
▁miting	-11.2984
▁Cu	-11.2985
▁KAT	-11.2985
▁gerçeklik	-11.2985
▁Krem	-11.2985
▁kötülük	-11.2986
▁Devletin	-11.2986
▁deyim	-11.2988
▁kurarak	-11.2988
▁Yönetmen	-11.2988
cıların	-11.2989
▁hizmetin	-11.299
▁Abd	-11.299
▁bölün	-11.299
▁sitelerin	-11.299
▁durdurma	-11.2992
▁çevresel	-11.2993
▁84	-11.2993
▁Şifre	-11.2995
▁koyarak	-11.2997
▁aşaması	-11.2998
▁Mercedes	-11.2998
▁bulunmuş	-11.2998
▁ilacı	-11.2999
▁tabaka	-11.3002
▁kaydıyla	-11.3004
▁havası	-11.3005
▁kullanılmıştır	-11.3006
▁71	-11.3007
▁istemediği	-11.3009
▁merhamet	-11.3009
▁manuel	-11.3009
▁Getir	-11.301
▁önü	-11.3012
▁%20	-11.3012
bkz	-11.3013
▁yapabiliyor	-11.3013
▁PO	-11.3013
▁kontrolünde	-11.3014
▁uzmanlık	-11.3015
▁Makyaj	-11.3017
▁yöntemlerle	-11.3018
▁ailelerin	-11.3018
▁evrim	-11.302
ılırken	-11.302
▁gününe	-11.3021
▁akademisyen	-11.3021
yl	-11.3023
▁abart	-11.3023
▁hadise	-11.3023
▁Tunç	-11.3028
ju	-11.3028
▁takılan	-11.3028
▁düşündüm	-11.3028
▁mülkiyet	-11.3029
▁kullanıldı	-11.303
kom	-11.3031
▁eksiklik	-11.3031
▁dişi	-11.3032
TAŞ	-11.3033
▁Link	-11.3033
kür	-11.3033
▁Forumu	-11.3035
▁Ortaokulu	-11.3036
▁çifti	-11.3037
bun	-11.3037
▁kişiliği	-11.304
üç	-11.304
▁markanın	-11.304
▁inanan	-11.3041
tüğü	-11.3042
İHA	-11.3043
▁bürosu	-11.3044
▁Tuzla	-11.3044
▁veriyorum	-11.3047
▁arayüzü	-11.3049
▁bambaşka	-11.305
▁ilkeleri	-11.3051
▁canı	-11.3051
▁sakınca	-11.3055
▁Seni	-11.3056
PO	-11.3058
▁vermekteyiz	-11.306
▁Öcalan	-11.3061
▁yapıların	-11.3061
memesi	-11.3062
▁Intel	-11.3064
▁Yemen	-11.3064
▁özelliğine	-11.3066
▁muhtar	-11.3066
▁ortaokul	-11.3066
▁anlamaya	-11.3066
cho	-11.3067
▁projesinin	-11.3067
▁Yak	-11.3069
▁şikayetçi	-11.3069
▁dayanak	-11.3071
▁Danışmanlık	-11.3072
▁balıkçı	-11.3072
▁Bayi	-11.3072
▁that	-11.3074
▁simgesi	-11.3074
▁Gibi	-11.3075
▁Mikro	-11.3078
▁belirti	-11.3079
▁İade	-11.3079
▁parlamento	-11.308
MÜ	-11.3081
▁ülkedeki	-11.3082
▁gösterecek	-11.3083
▁tweet	-11.3084
ılabilecek	-11.3086
▁yaşantı	-11.3086
▁delik	-11.3086
▁Ot	-11.3087
ANI	-11.3088
▁bölgeler	-11.3089
Orta	-11.309
▁duruş	-11.3091
▁halled	-11.3092
▁iddianame	-11.3094
sizliği	-11.3095
▁kumarhane	-11.3095
▁mucize	-11.3098
▁nefis	-11.3099
▁fail	-11.31
▁etse	-11.3101
▁töreninde	-11.3103
▁küs	-11.3103
▁aralıksız	-11.3103
iğin	-11.3103
▁çim	-11.3105
▁ruhunu	-11.3105
▁kamuoyuna	-11.3107
▁coin	-11.3108
▁Kiralama	-11.3108
▁1997	-11.3109
▁ilaçlama	-11.311
Ni	-11.311
▁ayrılması	-11.311
ilemez	-11.311
▁koruması	-11.3113
▁yayını	-11.3113
▁koridor	-11.3114
▁mecra	-11.3115
▁Kutu	-11.3116
▁çelişki	-11.3117
▁Köse	-11.3117
▁Tay	-11.3117
▁etkilerini	-11.3123
lanmasına	-11.3124
▁şaka	-11.3126
oku	-11.3129
▁durur	-11.3132
▁kararına	-11.3132
▁peki	-11.3133
▁boşalt	-11.3134
▁kadınlarda	-11.3134
MM	-11.3135
▁Ram	-11.3136
▁ilerliyor	-11.3138
▁Banyo	-11.3138
▁rejimi	-11.3138
▁Vergisi	-11.3138
▁sunuldu	-11.3139
▁Numarası	-11.314
▁listesine	-11.3141
▁SAĞLIK	-11.3141
▁koyul	-11.3143
php	-11.3143
had	-11.3144
▁âyet	-11.3146
▁Detaylı	-11.3146
▁yaparlar	-11.3147
▁Ceylan	-11.3148
-9	-11.315
▁oldugu	-11.315
▁anma	-11.3151
▁derler	-11.3151
▁karantina	-11.3152
▁from	-11.3152
▁girmeye	-11.3152
▁siteyi	-11.3153
▁Spa	-11.3153
▁telif	-11.3154
▁mutsuz	-11.3156
▁uzakta	-11.3157
▁eleştiriler	-11.3157
▁yüksekliği	-11.3157
▁FA	-11.3158
▁ajansı	-11.3159
▁kayna	-11.316
▁Bayburt	-11.3166
▁rüyada	-11.3167
▁haş	-11.3167
▁yöneticiler	-11.3167
▁Etki	-11.3171
▁kıyafetleri	-11.3173
▁50'	-11.3173
▁ilmi	-11.3173
▁yaşını	-11.3175
▁sera	-11.3176
▁sütun	-11.3177
▁Gençler	-11.3177
ografi	-11.3178
nom	-11.3179
▁Onları	-11.3179
▁hedefimiz	-11.318
▁yüzlü	-11.3182
zam	-11.3183
▁maya	-11.3183
ruh	-11.3184
▁İhtiyaç	-11.3185
▁Dost	-11.3186
▁durumunun	-11.3187
▁Özlem	-11.3187
▁gençlere	-11.3188
▁DNA	-11.3188
▁hobi	-11.3188
ella	-11.319
Yap	-11.319
▁Wo	-11.3192
▁hayatlarını	-11.3192
▁yapmadı	-11.3193
▁Renkli	-11.3193
▁vurul	-11.3193
▁dediğim	-11.3194
▁sıralarda	-11.3195
▁işlenmesi	-11.3197
▁mağara	-11.32
▁YÖK	-11.3202
▁tempo	-11.3202
▁MU	-11.3205
▁müddet	-11.3206
▁haberlerin	-11.3207
▁Raf	-11.3209
mediğini	-11.3209
▁etmekten	-11.3209
▁Ardahan	-11.3209
▁artırır	-11.321
tılar	-11.3212
▁kullandığımız	-11.3214
▁Kısacası	-11.3214
▁kalacağı	-11.3216
▁turistik	-11.3217
▁Bilindiği	-11.3219
▁performansını	-11.3219
▁kurulduğu	-11.3221
▁türden	-11.3221
▁şe	-11.3221
▁Sizlere	-11.3223
▁yükseltme	-11.3224
▁azaltma	-11.3224
▁utan	-11.3225
not	-11.3225
▁Konferansı	-11.3226
▁CM	-11.3226
▁Bağdat	-11.3227
▁Kürtler	-11.3227
▁filan	-11.3229
▁siparişi	-11.323
▁Dublaj	-11.3234
layacağız	-11.3236
▁yansıtma	-11.3236
▁OS	-11.3237
▁tas	-11.3237
▁yönlendiril	-11.3237
▁gelişimini	-11.3239
▁ürünlere	-11.324
yolu	-11.324
▁yakınlarında	-11.3241
▁alabilecek	-11.3242
▁Salgın	-11.3242
▁Boyutu	-11.3243
................	-11.3244
▁çarşı	-11.3245
▁Acar	-11.3246
▁suda	-11.3247
gram	-11.3252
▁çevresindeki	-11.3253
▁Power	-11.3253
laştığı	-11.3253
▁birileri	-11.3257
▁sitelerinden	-11.3259
▁HP	-11.326
[...]
